<pad>	0
<unk>	0
</s>	0
<|im_start|>	0
<|im_end|>	0
<|pad|>	0
<0x00>	0
<0x01>	0
<0x02>	0
<0x03>	0
<0x04>	0
<0x05>	0
<0x06>	0
<0x07>	0
<0x08>	0
<0x09>	0
<0x0A>	0
<0x0B>	0
<0x0C>	0
<0x0D>	0
<0x0E>	0
<0x0F>	0
<0x10>	0
<0x11>	0
<0x12>	0
<0x13>	0
<0x14>	0
<0x15>	0
<0x16>	0
<0x17>	0
<0x18>	0
<0x19>	0
<0x1A>	0
<0x1B>	0
<0x1C>	0
<0x1D>	0
<0x1E>	0
<0x1F>	0
<0x20>	0
<0x21>	0
<0x22>	0
<0x23>	0
<0x24>	0
<0x25>	0
<0x26>	0
<0x27>	0
<0x28>	0
<0x29>	0
<0x2A>	0
<0x2B>	0
<0x2C>	0
<0x2D>	0
<0x2E>	0
<0x2F>	0
<0x30>	0
<0x31>	0
<0x32>	0
<0x33>	0
<0x34>	0
<0x35>	0
<0x36>	0
<0x37>	0
<0x38>	0
<0x39>	0
<0x3A>	0
<0x3B>	0
<0x3C>	0
<0x3D>	0
<0x3E>	0
<0x3F>	0
<0x40>	0
<0x41>	0
<0x42>	0
<0x43>	0
<0x44>	0
<0x45>	0
<0x46>	0
<0x47>	0
<0x48>	0
<0x49>	0
<0x4A>	0
<0x4B>	0
<0x4C>	0
<0x4D>	0
<0x4E>	0
<0x4F>	0
<0x50>	0
<0x51>	0
<0x52>	0
<0x53>	0
<0x54>	0
<0x55>	0
<0x56>	0
<0x57>	0
<0x58>	0
<0x59>	0
<0x5A>	0
<0x5B>	0
<0x5C>	0
<0x5D>	0
<0x5E>	0
<0x5F>	0
<0x60>	0
<0x61>	0
<0x62>	0
<0x63>	0
<0x64>	0
<0x65>	0
<0x66>	0
<0x67>	0
<0x68>	0
<0x69>	0
<0x6A>	0
<0x6B>	0
<0x6C>	0
<0x6D>	0
<0x6E>	0
<0x6F>	0
<0x70>	0
<0x71>	0
<0x72>	0
<0x73>	0
<0x74>	0
<0x75>	0
<0x76>	0
<0x77>	0
<0x78>	0
<0x79>	0
<0x7A>	0
<0x7B>	0
<0x7C>	0
<0x7D>	0
<0x7E>	0
<0x7F>	0
<0x80>	0
<0x81>	0
<0x82>	0
<0x83>	0
<0x84>	0
<0x85>	0
<0x86>	0
<0x87>	0
<0x88>	0
<0x89>	0
<0x8A>	0
<0x8B>	0
<0x8C>	0
<0x8D>	0
<0x8E>	0
<0x8F>	0
<0x90>	0
<0x91>	0
<0x92>	0
<0x93>	0
<0x94>	0
<0x95>	0
<0x96>	0
<0x97>	0
<0x98>	0
<0x99>	0
<0x9A>	0
<0x9B>	0
<0x9C>	0
<0x9D>	0
<0x9E>	0
<0x9F>	0
<0xA0>	0
<0xA1>	0
<0xA2>	0
<0xA3>	0
<0xA4>	0
<0xA5>	0
<0xA6>	0
<0xA7>	0
<0xA8>	0
<0xA9>	0
<0xAA>	0
<0xAB>	0
<0xAC>	0
<0xAD>	0
<0xAE>	0
<0xAF>	0
<0xB0>	0
<0xB1>	0
<0xB2>	0
<0xB3>	0
<0xB4>	0
<0xB5>	0
<0xB6>	0
<0xB7>	0
<0xB8>	0
<0xB9>	0
<0xBA>	0
<0xBB>	0
<0xBC>	0
<0xBD>	0
<0xBE>	0
<0xBF>	0
<0xC0>	0
<0xC1>	0
<0xC2>	0
<0xC3>	0
<0xC4>	0
<0xC5>	0
<0xC6>	0
<0xC7>	0
<0xC8>	0
<0xC9>	0
<0xCA>	0
<0xCB>	0
<0xCC>	0
<0xCD>	0
<0xCE>	0
<0xCF>	0
<0xD0>	0
<0xD1>	0
<0xD2>	0
<0xD3>	0
<0xD4>	0
<0xD5>	0
<0xD6>	0
<0xD7>	0
<0xD8>	0
<0xD9>	0
<0xDA>	0
<0xDB>	0
<0xDC>	0
<0xDD>	0
<0xDE>	0
<0xDF>	0
<0xE0>	0
<0xE1>	0
<0xE2>	0
<0xE3>	0
<0xE4>	0
<0xE5>	0
<0xE6>	0
<0xE7>	0
<0xE8>	0
<0xE9>	0
<0xEA>	0
<0xEB>	0
<0xEC>	0
<0xED>	0
<0xEE>	0
<0xEF>	0
<0xF0>	0
<0xF1>	0
<0xF2>	0
<0xF3>	0
<0xF4>	0
<0xF5>	0
<0xF6>	0
<0xF7>	0
<0xF8>	0
<0xF9>	0
<0xFA>	0
<0xFB>	0
<0xFC>	0
<0xFD>	0
<0xFE>	0
<0xFF>	0
▁t	-0
▁a	-1
he	-2
in	-3
re	-4
on	-5
▁the	-6
▁▁	-7
er	-8
at	-9
▁s	-10
▁o	-11
▁c	-12
en	-13
▁w	-14
is	-15
es	-16
it	-17
or	-18
an	-19
▁p	-20
▁f	-21
al	-22
▁b	-23
▁an	-24
ed	-25
ing	-26
ou	-27
▁of	-28
▁in	-29
ar	-30
▁m	-31
▁to	-32
▁d	-33
ion	-34
ic	-35
▁and	-36
le	-37
ro	-38
as	-39
▁th	-40
▁▁▁▁	-41
▁h	-42
ent	-43
ct	-44
▁e	-45
▁re	-46
▁n	-47
om	-48
il	-49
st	-50
▁l	-51
▁T	-52
ve	-53
▁is	-54
et	-55
▁I	-56
ly	-57
ut	-58
se	-59
▁g	-60
▁be	-61
im	-62
ot	-63
▁A	-64
id	-65
ol	-66
ow	-67
ation	-68
▁u	-69
ce	-70
▁S	-71
ra	-72
▁for	-73
▁that	-74
ch	-75
ig	-76
▁on	-77
ur	-78
▁y	-79
ver	-80
▁C	-81
▁st	-82
am	-83
▁The	-84
ul	-85
▁(	-86
ay	-87
ith	-88
ir	-89
ad	-90
▁it	-91
el	-92
▁you	-93
▁as	-94
if	-95
od	-96
▁con	-97
▁pro	-98
▁with	-99
her	-100
▁are	-101
▁wh	-102
▁M	-103
▁al	-104
ter	-105
ge	-106
ate	-107
▁or	-108
▁P	-109
▁▁▁▁▁▁▁▁	-110
nd	-111
um	-112
ab	-113
▁B	-114
▁ex	-115
▁W	-116
em	-117
ist	-118
th	-119
est	-120
ect	-121
ri	-122
▁v	-123
▁H	-124
op	-125
qu	-126
ers	-127
ess	-128
ke	-129
▁de	-130
ill	-131
▁com	-132
ld	-133
ment	-134
ore	-135
ac	-136
▁he	-137
us	-138
ere	-139
pp	-140
and	-141
nt	-142
▁D	-143
rom	-144
▁su	-145
▁F	-146
res	-147
os	-148
▁ha	-149
▁-	-150
ity	-151
▁can	-152
▁E	-153
ant	-154
▁by	-155
▁at	-156
ain	-157
▁R	-158
oc	-159
ive	-160
▁ne	-161
igh	-162
un	-163
▁not	-164
▁this	-165
ies	-166
▁se	-167
▁r	-168
▁from	-169
▁N	-170
ort	-171
iv	-172
▁ch	-173
▁have	-174
▁was	-175
pt	-176
▁L	-177
ud	-178
▁G	-179
art	-180
ure	-181
ould	-182
pe	-183
▁sh	-184
ial	-185
og	-186
▁us	-187
▁le	-188
ical	-189
end	-190
▁O	-191
pl	-192
ight	-193
all	-194
age	-195
ome	-196
ich	-197
▁"	-198
out	-199
▁wor	-200
▁we	-201
▁ab	-202
ction	-203
▁im	-204
ine	-205
▁In	-206
ust	-207
rou	-208
ost	-209
per	-210
ag	-211
▁do	-212
our	-213
ther	-214
▁Th	-215
ated	-216
▁int	-217
▁whe	-218
gh	-219
▁U	-220
ard	-221
iz	-222
ult	-223
ff	-224
▁pl	-225
▁J	-226
▁which	-227
ell	-228
ple	-229
▁all	-230
ew	-231
ib	-232
▁k	-233
▁your	-234
ans	-235
ide	-236
▁but	-237
▁en	-238
▁=	-239
ast	-240
▁will	-241
are	-242
able	-243
act	-244
ions	-245
▁ad	-246
▁cl	-247
ame	-248
ass	-249
▁cont	-250
ak	-251
ind	-252
ue	-253
▁$	-254
orm	-255
cl	-256
du	-257
▁their	-258
▁res	-259
cc	-260
▁they	-261
ear	-262
ous	-263
ap	-264
so	-265
ire	-266
▁has	-267
ong	-268
ack	-269
▁more	-270
ry	-271
ally	-272
▁j	-273
▁dis	-274
ations	-275
ary	-276
ase	-277
▁me	-278
ok	-279
).	-280
ood	-281
▁one	-282
ile	-283
av	-284
vel	-285
▁other	-286
ia	-287
ex	-288
ach	-289
ub	-290
▁app	-291
▁so	-292
ip	-293
ime	-294
ild	-295
ru	-296
▁man	-297
ake	-298
ance	-299
▁qu	-300
ep	-301
ign	-302
▁out	-303
ents	-304
ike	-305
▁“	-306
▁per	-307
ose	-308
▁if	-309
ence	-310
▁ar	-311
ater	-312
▁comp	-313
ress	-314
▁un	-315
int	-316
one	-317
ice	-318
▁also	-319
ace	-320
▁St	-321
ord	-322
▁This	-323
ition	-324
au	-325
ite	-326
▁It	-327
low	-328
▁were	-329
ory	-330
ber	-331
▁work	-332
very	-333
▁sp	-334
ang	-335
▁there	-336
▁some	-337
▁pre	-338
▁sc	-339
▁use	-340
▁imp	-341
▁ev	-342
ens	-343
ount	-344
▁part	-345
▁about	-346
reat	-347
▁up	-348
con	-349
fere	-350
ject	-351
ook	-352
form	-353
▁Y	-354
now	-355
▁sy	-356
ound	-357
▁K	-358
..	-359
▁when	-360
▁V	-361
ll	-362
ail	-363
▁like	-364
▁comm	-365
lic	-366
▁▁▁	-367
ces	-368
▁them	-369
▁would	-370
--	-371
ors	-372
ph	-373
ish	-374
▁bec	-375
▁tr	-376
▁any	-377
▁who	-378
▁than	-379
ie	-380
pec	-381
);	-382
▁how	-383
▁te	-384
▁{	-385
ks	-386
▁his	-387
ings	-388
▁time	-389
▁dif	-390
▁pe	-391
ree	-392
),	-393
vers	-394
ath	-395
▁new	-396
ays	-397
nder	-398
▁Ch	-399
▁may	-400
▁stud	-401
▁into	-402
eth	-403
▁need	-404
ove	-405
ough	-406
ates	-407
▁go	-408
row	-409
irst	-410
ram	-411
erv	-412
▁\	-413
ause	-414
▁col	-415
ric	-416
▁rec	-417
▁been	-418
▁over	-419
ual	-420
▁know	-421
▁des	-422
▁Wh	-423
ian	-424
▁its	-425
olog	-426
▁ag	-427
▁what	-428
▁bet	-429
▁get	-430
▁ind	-431
▁tw	-432
ata	-433
▁only	-434
▁no	-435
tern	-436
▁these	-437
te	-438
rit	-439
ific	-440
▁my	-441
stem	-442
urn	-443
lect	-444
ople	-445
we	-446
clud	-447
▁year	-448
▁am	-449
▁▁▁▁▁	-450
▁tra	-451
ys	-452
▁po	-453
cre	-454
cess	-455
▁acc	-456
rough	-457
▁cons	-458
▁under	-459
▁had	-460
▁ro	-461
▁ob	-462
mer	-463
▁bl	-464
ient	-465
▁act	-466
▁add	-467
erm	-468
ble	-469
▁gen	-470
ons	-471
ext	-472
ren	-473
ob	-474
ious	-475
▁▁▁▁▁▁▁▁▁▁▁▁▁▁▁▁	-476
ink	-477
ft	-478
ck	-479
▁most	-480
▁sa	-481
▁people	-482
▁such	-483
▁used	-484
▁first	-485
▁rel	-486
▁If	-487
ative	-488
oss	-489
▁differe	-490
▁exp	-491
▁should	-492
ular	-493
▁our	-494
red	-495
▁two	-496
les	-497
▁ra	-498
ode	-499
ning	-500
ible	-501
ring	-502
ange	-503
rib	-504
▁spec	-505
hed	-506
fter	-507
▁How	-508
▁set	-509
iew	-510
▁rep	-511
▁inst	-512
ments	-513
ffect	-514
ert	-515
ities	-516
ov	-517
▁As	-518
velop	-519
▁hel	-520
▁then	-521
ating	-522
old	-523
▁form	-524
▁includ	-525
▁'	-526
round	-527
ont	-528
get	-529
▁ass	-530
unction	-531
ced	-532
ps	-533
hen	-534
▁Un	-535
▁prov	-536
▁ph	-537
ise	-538
▁val	-539
oth	-540
▁var	-541
▁em	-542
▁using	-543
▁num	-544
▁fe	-545
▁att	-546
▁ty	-547
ics	-548
▁just	-549
▁through	-550
▁produ	-551
▁where	-552
▁reg	-553
▁many	-554
alth	-555
ational	-556
▁pr	-557
ied	-558
▁Re	-559
▁could	-560
//	-561
▁system	-562
▁does	-563
ick	-564
ark	-565
ution	-566
▁way	-567
▁exam	-568
▁mod	-569
fore	-570
own	-571
▁sub	-572
ool	-573
ful	-574
▁child	-575
ility	-576
iss	-577
▁def	-578
▁sim	-579
▁off	-580
ne	-581
▁fl	-582
▁rem	-583
▁bu	-584
als	-585
ption	-586
ween	-587
com	-588
▁make	-589
sel	-590
▁develop	-591
ased	-592
▁An	-593
▁ac	-594
ollow	-595
▁call	-596
ever	-597
uring	-598
▁supp	-599
arch	-600
▁between	-601
▁pub	-602
▁He	-603
tt	-604
cy	-605
▁help	-606
▁For	-607
▁class	-608
its	-609
ower	-610
▁ke	-611
▁well	-612
▁import	-613
▁trans	-614
wn	-615
▁inter	-616
▁[	-617
▁ret	-618
ract	-619
ures	-620
ize	-621
ond	-622
▁because	-623
▁see	-624
iet	-625
▁}	-626
ting	-627
ten	-628
hes	-629
▁co	-630
▁data	-631
ually	-632
▁–	-633
▁function	-634
▁inv	-635
▁different	-636
uch	-637
▁We	-638
▁sur	-639
▁follow	-640
▁sm	-641
▁same	-642
▁inf	-643
▁You	-644
▁<	-645
ade	-646
ically	-647
▁gener	-648
▁ent	-649
▁want	-650
ef	-651
ife	-652
▁requ	-653
ock	-654
ict	-655
▁Al	-656
blem	-657
ism	-658
▁result	-659
▁even	-660
▁each	-661
▁after	-662
ty	-663
ng	-664
ily	-665
▁very	-666
other	-667
ues	-668
▁cre	-669
▁pres	-670
▁Pro	-671
aw	-672
▁years	-673
▁found	-674
▁|	-675
ines	-676
ident	-677
ered	-678
▁high	-679
read	-680
▁det	-681
▁long	-682
ix	-683
▁ext	-684
ax	-685
▁pers	-686
▁water	-687
ec	-688
▁find	-689
▁every	-690
▁read	-691
▁problem	-692
ork	-693
ited	-694
ds	-695
eg	-696
formation	-697
vent	-698
▁look	-699
▁end	-700
ature	-701
="	-702
ages	-703
iel	-704
▁ed	-705
▁cur	-706
ists	-707
()	-708
gan	-709
▁ear	-710
ins	-711
▁But	-712
▁There	-713
▁lar	-714
▁her	-715
▁prog	-716
put	-717
▁sol	-718
ts	-719
uc	-720
▁test	-721
ruct	-722
oy	-723
ology	-724
▁resp	-725
ethod	-726
chn	-727
▁count	-728
nce	-729
imes	-730
▁process	-731
▁quest	-732
io	-733
▁loc	-734
▁Is	-735
▁back	-736
▁sign	-737
ience	-738
▁those	-739
▁effect	-740
▁incre	-741
ural	-742
▁being	-743
▁What	-744
▁aut	-745
▁pol	-746
▁example	-747
▁Com	-748
▁rese	-749
▁che	-750
aking	-751
land	-752
▁here	-753
▁health	-754
gy	-755
▁cor	-756
▁much	-757
meric	-758
▁cent	-759
▁point	-760
ection	-761
▁exper	-762
▁dist	-763
▁lear	-764
ince	-765
ants	-766
inal	-767
▁right	-768
irect	-769
▁number	-770
cept	-771
▁poss	-772
▁public	-773
cent	-774
▁dep	-775
▁fact	-776
ull	-777
arm	-778
chool	-779
ved	-780
ases	-781
ivers	-782
gg	-783
▁car	-784
ives	-785
▁med	-786
ros	-787
▁world	-788
▁disc	-789
ness	-790
▁show	-791
▁partic	-792
ody	-793
▁ins	-794
▁.	-795
rent	-796
tle	-797
▁&	-798
ute	-799
der	-800
----	-801
▁hum	-802
▁both	-803
ized	-804
ined	-805
...	-806
▁return	-807
led	-808
▁ser	-809
▁comple	-810
▁said	-811
up	-812
▁Americ	-813
ather	-814
▁she	-815
▁own	-816
▁before	-817
ern	-818
▁information	-819
▁som	-820
▁dec	-821
ward	-822
▁And	-823
▁av	-824
▁expl	-825
▁pat	-826
▁#	-827
▁start	-828
▁ca	-829
▁mon	-830
▁good	-831
▁const	-832
▁char	-833
ted	-834
▁min	-835
▁don	-836
ices	-837
▁state	-838
▁grou	-839
▁Ar	-840
▁They	-841
▁ref	-842
▁Se	-843
▁level	-844
▁appro	-845
▁str	-846
▁mat	-847
▁+	-848
sh	-849
▁now	-850
iron	-851
▁main	-852
__	-853
rol	-854
stand	-855
▁▁▁▁▁▁▁▁▁▁▁▁	-856
▁again	-857
cri	-858
▁method	-859
▁while	-860
ving	-861
▁gra	-862
▁art	-863
▁made	-864
▁So	-865
▁When	-866
",	-867
▁important	-868
self	-869
▁during	-870
▁children	-871
▁equ	-872
▁life	-873
▁par	-874
▁techn	-875
▁hand	-876
▁soc	-877
any	-878
▁program	-879
ier	-880
ale	-881
und	-882
▁small	-883
▁mem	-884
▁fam	-885
▁conf	-886
▁Ex	-887
▁did	-888
▁run	-889
akes	-890
ash	-891
.”	-892
▁commun	-893
▁take	-894
▁person	-895
▁down	-896
pen	-897
▁lead	-898
vern	-899
ially	-900
oid	-901
▁think	-902
ven	-903
▁gl	-904
the	-905
ality	-906
▁/	-907
oad	-908
de	-909
ner	-910
.,	-911
▁sk	-912
▁prot	-913
▁lit	-914
▁pop	-915
eng	-916
err	-917
▁code	-918
ug	-919
▁must	-920
ource	-921
ron	-922
▁To	-923
▁type	-924
ave	-925
ument	-926
viron	-927
▁object	-928
ator	-929
▁di	-930
▁still	-931
▁less	-932
ray	-933
▁study	-934
cond	-935
▁pass	-936
▁serv	-937
▁food	-938
▁students	-939
▁ele	-940
sw	-941
▁support	-942
air	-943
▁New	-944
ield	-945
▁though	-946
ains	-947
ters	-948
ves	-949
▁name	-950
▁allow	-951
▁cle	-952
▁grow	-953
imate	-954
▁x	-955
▁provid	-956
ton	-957
▁without	-958
▁Ind	-959
St	-960
ivid	-961
▁hist	-962
▁often	-963
ran	-964
ery	-965
▁around	-966
iqu	-967
ished	-968
▁:	-969
▁value	-970
ead	-971
▁power	-972
ox	-973
atic	-974
▁case	-975
▁following	-976
▁might	-977
dition	-978
ulation	-979
▁file	-980
▁him	-981
ething	-982
▁consid	-983
▁occ	-984
▁change	-985
▁vis	-986
▁i	-987
▁However	-988
▁cell	-989
▁require	-990
▁called	-991
ote	-992
iversity	-993
▁build	-994
ared	-995
▁tem	-996
ral	-997
ected	-998
ency	-999
▁day	-1000
uss	-1001
▁Sc	-1002
▁try	-1003
▁list	-1004
▁eas	-1005
▁three	-1006
▁direct	-1007
▁understand	-1008
▁est	-1009
▁gu	-1010
▁ide	-1011
▁design	-1012
acter	-1013
▁writ	-1014
ars	-1015
▁school	-1016
▁Q	-1017
iven	-1018
▁chang	-1019
▁bel	-1020
ify	-1021
vironment	-1022
oh	-1023
bers	-1024
▁fil	-1025
ctions	-1026
omen	-1027
els	-1028
▁Con	-1029
▁proper	-1030
▁large	-1031
way	-1032
▁term	-1033
pr	-1034
itions	-1035
▁another	-1036
▁treat	-1037
ah	-1038
▁plan	-1039
▁common	-1040
to	-1041
here	-1042
▁iss	-1043
▁beh	-1044
ason	-1045
aj	-1046
▁pos	-1047
▁possible	-1048
▁play	-1049
ross	-1050
▁line	-1051
▁contin	-1052
app	-1053
▁typ	-1054
▁activ	-1055
▁De	-1056
▁redu	-1057
▁cour	-1058
▁great	-1059
ets	-1060
▁ris	-1061
▁question	-1062
||	-1063
par	-1064
▁stand	-1065
▁Ad	-1066
▁met	-1067
ouse	-1068
▁el	-1069
://	-1070
▁body	-1071
▁Sh	-1072
▁human	-1073
ization	-1074
▁adv	-1075
▁These	-1076
▁research	-1077
day	-1078
▁project	-1079
val	-1080
ury	-1081
osed	-1082
arent	-1083
▁something	-1084
▁few	-1085
line	-1086
▁oper	-1087
▁pri	-1088
▁current	-1089
pro	-1090
▁dise	-1091
ems	-1092
erest	-1093
me	-1094
▁organ	-1095
ering	-1096
iety	-1097
▁order	-1098
▁report	-1099
ik	-1100
ium	-1101
ense	-1102
itive	-1103
."	-1104
▁tri	-1105
ital	-1106
not	-1107
▁et	-1108
ffic	-1109
▁land	-1110
▁say	-1111
▁elect	-1112
less	-1113
▁place	-1114
cer	-1115
raph	-1116
irc	-1117
hers	-1118
ergy	-1119
▁sl	-1120
▁govern	-1121
hip	-1122
▁within	-1123
▁gre	-1124
▁answ	-1125
ified	-1126
ertain	-1127
ways	-1128
▁On	-1129
▁including	-1130
oun	-1131
sc	-1132
angu	-1133
▁care	-1134
▁Sp	-1135
▁ve	-1136
▁bas	-1137
▁Res	-1138
▁known	-1139
rain	-1140
ination	-1141
lish	-1142
ames	-1143
ccess	-1144
▁since	-1145
▁post	-1146
▁pract	-1147
man	-1148
▁▁▁▁▁▁	-1149
ional	-1150
▁dem	-1151
▁ident	-1152
The	-1153
▁Can	-1154
▁real	-1155
orn	-1156
ER	-1157
▁means	-1158
▁Cl	-1159
ior	-1160
▁*	-1161
ential	-1162
ources	-1163
▁rest	-1164
view	-1165
▁top	-1166
▁bre	-1167
oci	-1168
aterial	-1169
▁better	-1170
▁sym	-1171
▁mean	-1172
▁spe	-1173
ording	-1174
▁book	-1175
▁mult	-1176
ger	-1177
▁non	-1178
▁able	-1179
ability	-1180
▁open	-1181
▁product	-1182
▁At	-1183
▁best	-1184
ries	-1185
▁group	-1186
ww	-1187
ration	-1188
▁Eng	-1189
bs	-1190
▁too	-1191
▁last	-1192
gin	-1193
▁sit	-1194
iving	-1195
▁pur	-1196
▁text	-1197
▁present	-1198
▁control	-1199
▁second	-1200
▁happ	-1201
▁‘	-1202
conom	-1203
▁view	-1204
ma	-1205
alk	-1206
port	-1207
ware	-1208
▁interest	-1209
▁Ph	-1210
▁create	-1211
▁let	-1212
▁conn	-1213
▁perform	-1214
ably	-1215
ividual	-1216
▁key	-1217
):	-1218
▁dev	-1219
ttp	-1220
▁caus	-1221
iod	-1222
,”	-1223
',	-1224
eral	-1225
rac	-1226
xt	-1227
▁environment	-1228
▁meas	-1229
▁cap	-1230
▁orig	-1231
outh	-1232
ank	-1233
be	-1234
rid	-1235
▁old	-1236
▁phys	-1237
▁bo	-1238
▁$\	-1239
▁area	-1240
▁fin	-1241
ilar	-1242
ples	-1243
▁image	-1244
oms	-1245
▁imm	-1246
▁Z	-1247
▁energy	-1248
▁things	-1249
right	-1250
▁keep	-1251
ained	-1252
▁light	-1253
▁applic	-1254
▁prof	-1255
▁access	-1256
hor	-1257
roll	-1258
▁include	-1259
▁educ	-1260
("	-1261
ision	-1262
oint	-1263
inc	-1264
▁X	-1265
▁wr	-1266
▁vari	-1267
▁move	-1268
▁anal	-1269
min	-1270
▁Pl	-1271
elf	-1272
ailable	-1273
rop	-1274
ats	-1275
In	-1276
</	-1277
▁particular	-1278
▁learn	-1279
ention	-1280
▁eng	-1281
▁above	-1282
▁pot	-1283
ither	-1284
ope	-1285
▁belie	-1286
▁sever	-1287
▁University	-1288
ien	-1289
ived	-1290
▁Or	-1291
▁err	-1292
▁individual	-1293
▁cal	-1294
ians	-1295
▁given	-1296
_{	-1297
▁material	-1298
▁mark	-1299
▁inc	-1300
erc	-1301
▁impro	-1302
▁American	-1303
▁war	-1304
▁against	-1305
agn	-1306
▁es	-1307
▁lim	-1308
▁struct	-1309
▁put	-1310
mit	-1311
▁ben	-1312
icle	-1313
orth	-1314
ots	-1315
▁based	-1316
ajor	-1317
atch	-1318
face	-1319
ently	-1320
▁hy	-1321
▁development	-1322
▁why	-1323
▁unt	-1324
▁low	-1325
▁opp	-1326
crib	-1327
▁home	-1328
illion	-1329
az	-1330
▁langu	-1331
▁Col	-1332
▁head	-1333
▁sing	-1334
}{	-1335
▁turn	-1336
▁z	-1337
▁Be	-1338
amp	-1339
▁mus	-1340
pect	-1341
▁diff	-1342
set	-1343
iness	-1344
ole	-1345
▁One	-1346
▁social	-1347
ression	-1348
over	-1349
▁mar	-1350
▁provide	-1351
ission	-1352
vious	-1353
▁addition	-1354
▁law	-1355
▁fore	-1356
uro	-1357
ends	-1358
thing	-1359
indow	-1360
▁air	-1361
▁vers	-1362
ological	-1363
▁leg	-1364
▁several	-1365
cing	-1366
sy	-1367
ining	-1368
▁ant	-1369
ggest	-1370
▁occur	-1371
▁anim	-1372
rodu	-1373
▁All	-1374
of	-1375
▁local	-1376
▁nat	-1377
ental	-1378
iver	-1379
▁hard	-1380
ule	-1381
▁Sy	-1382
lished	-1383
▁available	-1384
▁always	-1385
▁become	-1386
AT	-1387
▁comput	-1388
ava	-1389
▁says	-1390
▁disease	-1391
▁risk	-1392
▁times	-1393
▁women	-1394
▁certain	-1395
ling	-1396
work	-1397
▁fre	-1398
rist	-1399
▁That	-1400
use	-1401
ories	-1402
▁hig	-1403
▁creat	-1404
resent	-1405
ocument	-1406
▁cult	-1407
hem	-1408
▁sw	-1409
▁suggest	-1410
▁—	-1411
▁--	-1412
gen	-1413
plic	-1414
ised	-1415
rap	-1416
ards	-1417
ploy	-1418
▁early	-1419
▁rece	-1420
raw	-1421
arc	-1422
ault	-1423
▁My	-1424
ference	-1425
aps	-1426
▁cause	-1427
▁men	-1428
▁saf	-1429
rect	-1430
▁major	-1431
▁mil	-1432
▁specific	-1433
▁space	-1434
▁pain	-1435
}$	-1436
ids	-1437
▁government	-1438
▁econom	-1439
▁little	-1440
▁really	-1441
▁near	-1442
▁invol	-1443
▁Some	-1444
▁ask	-1445
▁With	-1446
▁log	-1447
though	-1448
aces	-1449
ended	-1450
▁exist	-1451
idd	-1452
▁cho	-1453
▁period	-1454
▁blood	-1455
ients	-1456
▁lab	-1457
▁similar	-1458
▁history	-1459
▁gr	-1460
▁tre	-1461
lu	-1462
pos	-1463
ately	-1464
ler	-1465
ables	-1466
aster	-1467
▁family	-1468
ograph	-1469
▁sure	-1470
▁give	-1471
▁others	-1472
▁enc	-1473
▁del	-1474
ides	-1475
IN	-1476
ending	-1477
▁check	-1478
ream	-1479
▁working	-1480
for	-1481
▁prob	-1482
▁free	-1483
idence	-1484
▁results	-1485
urther	-1486
▁percent	-1487
▁United	-1488
▁short	-1489
cript	-1490
cur	-1491
▁Do	-1492
▁come	-1493
▁works	-1494
ogn	-1495
ills	-1496
();	-1497
▁vol	-1498
ser	-1499
▁arg	-1500
,"	-1501
▁later	-1502
▁success	-1503
▁opt	-1504
▁model	-1505
▁press	-1506
▁By	-1507
▁appear	-1508
ready	-1509
▁feel	-1510
▁clear	-1511
lease	-1512
▁until	-1513
▁affect	-1514
▁far	-1515
▁four	-1516
▁answer	-1517
olution	-1518
▁learning	-1519
aper	-1520
▁cost	-1521
▁behav	-1522
▁determ	-1523
▁character	-1524
▁reason	-1525
ina	-1526
oot	-1527
▁doesn	-1528
▁intern	-1529
▁course	-1530
ek	-1531
▁least	-1532
▁God	-1533
▁US	-1534
ged	-1535
▁benef	-1536
▁next	-1537
ON	-1538
▁bus	-1539
ird	-1540
ape	-1541
ured	-1542
▁multi	-1543
▁cond	-1544
▁comb	-1545
▁signific	-1546
▁user	-1547
ibr	-1548
math	-1549
ask	-1550
▁size	-1551
▁left	-1552
ms	-1553
▁problems	-1554
ocus	-1555
sp	-1556
▁bro	-1557
let	-1558
▁below	-1559
wh	-1560
▁self	-1561
▁amount	-1562
my	-1563
▁cr	-1564
▁$$	-1565
▁scient	-1566
▁month	-1567
stit	-1568
plement	-1569
▁Here	-1570
▁among	-1571
▁prevent	-1572
ateg	-1573
▁having	-1574
ribut	-1575
osp	-1576
ored	-1577
('	-1578
yn	-1579
lection	-1580
ances	-1581
▁single	-1582
▁norm	-1583
▁areas	-1584
▁Le	-1585
▁rad	-1586
▁describ	-1587
▁species	-1588
▁already	-1589
==	-1590
^{	-1591
▁country	-1592
ann	-1593
▁never	-1594
ml	-1595
▁making	-1596
roid	-1597
▁circ	-1598
▁done	-1599
▁associ	-1600
▁kind	-1601
▁complete	-1602
ST	-1603
duct	-1604
▁dri	-1605
ane	-1606
cription	-1607
▁mov	-1608
son	-1609
▁likely	-1610
▁changes	-1611
▁contain	-1612
▁going	-1613
ortun	-1614
▁Go	-1615
ules	-1616
▁//	-1617
ember	-1618
▁command	-1619
name	-1620
▁States	-1621
eter	-1622
▁words	-1623
▁general	-1624
▁Christ	-1625
▁enough	-1626
omm	-1627
▁flow	-1628
icult	-1629
))	-1630
▁init	-1631
".	-1632
por	-1633
▁true	-1634
▁due	-1635
unt	-1636
▁language	-1637
▁>	-1638
text	-1639
▁net	-1640
▁actually	-1641
▁usually	-1642
▁record	-1643
uture	-1644
▁cells	-1645
▁age	-1646
▁sum	-1647
▁En	-1648
▁bi	-1649
▁prom	-1650
▁either	-1651
▁field	-1652
frac	-1653
▁Im	-1654
▁Comm	-1655
ength	-1656
vert	-1657
Cont	-1658
▁along	-1659
▁page	-1660
▁Bl	-1661
play	-1662
une	-1663
--------	-1664
aken	-1665
▁•	-1666
▁Cent	-1667
ique	-1668
▁simple	-1669
▁needs	-1670
pre	-1671
obal	-1672
tr	-1673
▁error	-1674
▁source	-1675
umn	-1676
ume	-1677
urope	-1678
most	-1679
▁priv	-1680
ively	-1681
▁plant	-1682
▁necess	-1683
▁Te	-1684
▁natural	-1685
ators	-1686
ours	-1687
ired	-1688
▁step	-1689
▁however	-1690
▁treatment	-1691
▁side	-1692
▁tool	-1693
ush	-1694
::	-1695
yle	-1696
▁parent	-1697
aut	-1698
▁vir	-1699
▁whether	-1700
org	-1701
eb	-1702
▁begin	-1703
ID	-1704
tain	-1705
▁days	-1706
▁cannot	-1707
▁levels	-1708
▁makes	-1709
▁print	-1710
▁systems	-1711
▁implement	-1712
ample	-1713
▁Ear	-1714
▁past	-1715
▁represent	-1716
▁After	-1717
itor	-1718
by	-1719
▁National	-1720
cle	-1721
▁event	-1722
▁full	-1723
ledge	-1724
serv	-1725
orld	-1726
ott	-1727
▁Med	-1728
▁significant	-1729
▁focus	-1730
▁fail	-1731
ones	-1732
▁author	-1733
▁lot	-1734
▁types	-1735
ires	-1736
▁special	-1737
ification	-1738
▁ess	-1739
▁fac	-1740
▁rather	-1741
aim	-1742
▁discuss	-1743
af	-1744
etic	-1745
arget	-1746
ohn	-1747
ception	-1748
▁Cont	-1749
▁Tr	-1750
AR	-1751
opy	-1752
▁string	-1753
▁path	-1754
▁dam	-1755
icro	-1756
▁Europe	-1757
▁difficult	-1758
ype	-1759
▁young	-1760
▁cases	-1761
▁invest	-1762
pecially	-1763
ctor	-1764
ustom	-1765
▁stat	-1766
reen	-1767
▁increase	-1768
▁consider	-1769
.)	-1770
side	-1771
▁higher	-1772
▁Af	-1773
▁account	-1774
▁link	-1775
new	-1776
▁strong	-1777
##	-1778
▁word	-1779
▁mess	-1780
LE	-1781
▁temper	-1782
▁conditions	-1783
▁across	-1784
ches	-1785
agement	-1786
mb	-1787
asing	-1788
▁values	-1789
onse	-1790
▁questions	-1791
▁polit	-1792
ruction	-1793
gether	-1794
alf	-1795
▁together	-1796
▁Gen	-1797
▁instead	-1798
ication	-1799
View	-1800
▁created	-1801
fer	-1802
▁address	-1803
▁impact	-1804
▁indust	-1805
▁site	-1806
str	-1807
▁experience	-1808
atory	-1809
▁@	-1810
gs	-1811
ilt	-1812
▁away	-1813
▁▁▁▁▁▁▁▁▁▁▁▁▁	-1814
▁various	-1815
▁future	-1816
▁tell	-1817
▁death	-1818
rag	-1819
ysis	-1820
▁heart	-1821
▁range	-1822
▁etc	-1823
▁big	-1824
ilities	-1825
▁cy	-1826
▁select	-1827
▁While	-1828
▁population	-1829
▁crit	-1830
▁mot	-1831
▁prim	-1832
▁correct	-1833
▁Mar	-1834
istic	-1835
iting	-1836
▁today	-1837
li	-1838
edi	-1839
▁lay	-1840
▁table	-1841
▁ways	-1842
▁integ	-1843
▁close	-1844
▁Ab	-1845
▁No	-1846
ply	-1847
▁seems	-1848
▁detail	-1849
orts	-1850
igure	-1851
▁once	-1852
▁http	-1853
ivity	-1854
aves	-1855
▁seen	-1856
NA	-1857
▁ill	-1858
▁community	-1859
ison	-1860
▁million	-1861
▁idea	-1862
▁conc	-1863
chie	-1864
atures	-1865
selves	-1866
▁estab	-1867
▁Now	-1868
▁lower	-1869
inter	-1870
▁Germ	-1871
▁century	-1872
co	-1873
▁bit	-1874
▁install	-1875
▁ey	-1876
raft	-1877
▁...	-1878
ibility	-1879
▁education	-1880
ipp	-1881
oph	-1882
action	-1883
▁App	-1884
▁red	-1885
fficient	-1886
▁respons	-1887
oney	-1888
▁else	-1889
apt	-1890
▁John	-1891
nal	-1892
oo	-1893
aring	-1894
▁trying	-1895
">	-1896
▁cancer	-1897
anc	-1898
▁teac	-1899
▁dr	-1900
rel	-1901
▁Brit	-1902
AS	-1903
▁doing	-1904
▁solution	-1905
OR	-1906
▁itself	-1907
**	-1908
▁attack	-1909
▁document	-1910
omes	-1911
ips	-1912
▁thing	-1913
▁further	-1914
▁Stud	-1915
▁indic	-1916
▁ur	-1917
▁English	-1918
▁relations	-1919
ued	-1920
etimes	-1921
uation	-1922
▁whole	-1923
▁calc	-1924
▁neg	-1925
▁mind	-1926
go	-1927
▁separ	-1928
place	-1929
▁especially	-1930
▁brain	-1931
▁Int	-1932
▁approach	-1933
▁tot	-1934
▁application	-1935
▁improve	-1936
▁technology	-1937
▁version	-1938
▁team	-1939
epend	-1940
ales	-1941
],	-1942
date	-1943
rad	-1944
hern	-1945
▁subject	-1946
▁May	-1947
▁pack	-1948
▁profess	-1949
▁enter	-1950
▁countries	-1951
▁sens	-1952
▁sent	-1953
▁War	-1954
rict	-1955
oman	-1956
amb	-1957
▁groups	-1958
▁hold	-1959
▁Afric	-1960
▁effects	-1961
▁dig	-1962
▁required	-1963
▁Qu	-1964
like	-1965
▁dom	-1966
hing	-1967
iation	-1968
▁article	-1969
}\	-1970
▁pred	-1971
▁complex	-1972
▁business	-1973
ges	-1974
reg	-1975
ground	-1976
▁ground	-1977
verage	-1978
back	-1979
▁achie	-1980
▁deg	-1981
▁issue	-1982
col	-1983
ung	-1984
empt	-1985
nces	-1986
▁bir	-1987
▁abs	-1988
equ	-1989
▁fund	-1990
IT	-1991
▁thought	-1992
ee	-1993
ising	-1994
▁researc	-1995
▁port	-1996
▁World	-1997
▁rate	-1998
load	-1999
▁output	-2000
ptoms	-2001
▁Intern	-2002
▁Cal	-2003
▁,	-2004
▁paper	-2005
order	-2006
▁position	-2007
▁dest	-2008
)$	-2009
▁files	-2010
▁Car	-2011
▁dat	-2012
▁frequ	-2013
▁knowledge	-2014
▁lo	-2015
ront	-2016
ES	-2017
▁content	-2018
ym	-2019
▁super	-2020
ublic	-2021
▁physical	-2022
dd	-2023
▁happen	-2024
yth	-2025
▁became	-2026
ump	-2027
▁She	-2028
bl	-2029
ands	-2030
▁seem	-2031
▁mass	-2032
▁avoid	-2033
▁Ge	-2034
▁story	-2035
▁according	-2036
▁house	-2037
▁Ass	-2038
▁needed	-2039
▁standard	-2040
▁role	-2041
▁consum	-2042
▁action	-2043
▁chem	-2044
▁entire	-2045
augh	-2046
▁Man	-2047
▁states	-2048
▁studies	-2049
iol	-2050
▁Dr	-2051
utions	-2052
▁Acc	-2053
wards	-2054
▁loss	-2055
▁recomm	-2056
▁offic	-2057
ude	-2058
▁black	-2059
▁city	-2060
▁related	-2061
▁Act	-2062
iddle	-2063
▁Su	-2064
},	-2065
▁sound	-2066
aching	-2067
ae	-2068
▁decl	-2069
▁simply	-2070
▁methods	-2071
It	-2072
▁polic	-2073
bo	-2074
ites	-2075
▁surface	-2076
▁probably	-2077
earch	-2078
▁color	-2079
Th	-2080
▁Why	-2081
▁fall	-2082
▁activity	-2083
▁prop	-2084
mber	-2085
▁ens	-2086
▁observ	-2087
uments	-2088
lying	-2089
▁original	-2090
Pro	-2091
▁live	-2092
ley	-2093
▁issues	-2094
▁phot	-2095
▁employ	-2096
▁defin	-2097
▁write	-2098
▁sense	-2099
▁plants	-2100
▁eff	-2101
▁rele	-2102
":	-2103
▁protect	-2104
▁chall	-2105
▁condition	-2106
ival	-2107
overed	-2108
▁la	-2109
▁considered	-2110
▁uses	-2111
▁taken	-2112
▁influ	-2113
▁private	-2114
▁fri	-2115
▁came	-2116
▁ge	-2117
▁previous	-2118
▁resources	-2119
▁upon	-2120
word	-2121
▁numbers	-2122
▁potential	-2123
▁target	-2124
▁Then	-2125
eds	-2126
{\	-2127
▁stop	-2128
▁building	-2129
▁multiple	-2130
▁ann	-2131
▁looking	-2132
▁break	-2133
att	-2134
▁recogn	-2135
▁flu	-2136
▁evidence	-2137
▁production	-2138
▁almost	-2139
▁pay	-2140
▁introdu	-2141
iction	-2142
▁quick	-2143
▁points	-2144
▁science	-2145
▁bar	-2146
▁weight	-2147
▁members	-2148
▁Pr	-2149
▁shows	-2150
Ex	-2151
ties	-2152
light	-2153
▁soft	-2154
ibrary	-2155
bit	-2156
▁quality	-2157
▁products	-2158
atter	-2159
▁pattern	-2160
▁Soc	-2161
▁sun	-2162
▁engine	-2163
▁service	-2164
▁structure	-2165
▁white	-2166
▁global	-2167
ey	-2168
____	-2169
▁yet	-2170
urch	-2171
sequ	-2172
▁accept	-2173
add	-2174
part	-2175
aged	-2176
anks	-2177
▁compon	-2178
▁exec	-2179
▁claim	-2180
▁Rep	-2181
▁deb	-2182
cont	-2183
▁br	-2184
▁Us	-2185
chan	-2186
▁Health	-2187
▁measure	-2188
ta	-2189
")	-2190
▁comes	-2191
▁patients	-2192
▁▁▁▁▁▁▁	-2193
ulate	-2194
▁five	-2195
▁param	-2196
mon	-2197
▁difference	-2198
▁From	-2199
inary	-2200
enn	-2201
ET	-2202
eed	-2203
imum	-2204
▁load	-2205
CT	-2206
ister	-2207
▁Not	-2208
▁half	-2209
ournal	-2210
▁exact	-2211
▁practice	-2212
▁description	-2213
▁tradition	-2214
leep	-2215
▁symptoms	-2216
aced	-2217
verse	-2218
acy	-2219
amm	-2220
▁associated	-2221
▁themselves	-2222
▁nut	-2223
▁Earth	-2224
▁Ed	-2225
▁=>	-2226
usion	-2227
▁computer	-2228
▁mach	-2229
ores	-2230
▁input	-2231
▁getting	-2232
▁job	-2233
indows	-2234
▁easy	-2235
▁terms	-2236
▁particip	-2237
▁developed	-2238
bon	-2239
alse	-2240
oll	-2241
▁necessary	-2242
▁cut	-2243
utes	-2244
▁reading	-2245
▁meet	-2246
illed	-2247
ift	-2248
▁normal	-2249
▁reduce	-2250
▁activities	-2251
▁ability	-2252
Name	-2253
▁pressure	-2254
▁coll	-2255
olic	-2256
ils	-2257
▁total	-2258
ched	-2259
▁Dis	-2260
amin	-2261
ension	-2262
▁North	-2263
▁growth	-2264
▁wide	-2265
idth	-2266
▁understanding	-2267
▁provides	-2268
rown	-2269
▁Gu	-2270
▁concept	-2271
▁inside	-2272
▁parts	-2273
EN	-2274
irm	-2275
▁relationship	-2276
ulations	-2277
▁national	-2278
▁Per	-2279
sych	-2280
▁ever	-2281
▁More	-2282
▁Aust	-2283
▁arch	-2284
▁element	-2285
▁Dep	-2286
ivil	-2287
▁request	-2288
Ch	-2289
▁response	-2290
▁concern	-2291
▁matter	-2292
itle	-2293
▁nature	-2294
▁ut	-2295
curity	-2296
▁custom	-2297
▁behavior	-2298
▁mor	-2299
▁longer	-2300
AN	-2301
▁dru	-2302
▁diet	-2303
▁writing	-2304
▁dou	-2305
▁got	-2306
▁cat	-2307
fact	-2308
▁Many	-2309
▁Ag	-2310
▁hours	-2311
▁array	-2312
where	-2313
▁relig	-2314
▁week	-2315
▁connect	-2316
ari	-2317
apan	-2318
▁regard	-2319
▁published	-2320
▁living	-2321
reme	-2322
izing	-2323
▁famil	-2324
ene	-2325
▁someone	-2326
▁climate	-2327
Cl	-2328
▁Am	-2329
fully	-2330
▁written	-2331
▁added	-2332
▁took	-2333
▁America	-2334
▁analysis	-2335
▁Des	-2336
▁Most	-2337
OM	-2338
yl	-2339
▁pie	-2340
▁York	-2341
aries	-2342
▁researchers	-2343
▁built	-2344
▁shown	-2345
ried	-2346
▁sal	-2347
hold	-2348
▁medical	-2349
amed	-2350
▁fire	-2351
oon	-2352
▁talk	-2353
hib	-2354
▁Your	-2355
ogle	-2356
▁modern	-2357
www	-2358
▁political	-2359
▁South	-2360
▁Hist	-2361
osis	-2362
▁search	-2363
▁collect	-2364
▁relative	-2365
Id	-2366
▁meaning	-2367
ences	-2368
▁First	-2369
▁histor	-2370
▁sat	-2371
▁provided	-2372
ideo	-2373
▁Pe	-2374
pose	-2375
▁elements	-2376
▁State	-2377
enc	-2378
▁His	-2379
▁quite	-2380
▁System	-2381
▁increased	-2382
ober	-2383
▁ri	-2384
ging	-2385
▁memory	-2386
$.	-2387
ields	-2388
ender	-2389
▁draw	-2390
▁money	-2391
▁Em	-2392
AL	-2393
▁produce	-2394
▁property	-2395
▁student	-2396
aging	-2397
▁Pre	-2398
uild	-2399
▁slow	-2400
▁%	-2401
uff	-2402
▁Also	-2403
▁block	-2404
▁Co	-2405
▁Since	-2406
▁squ	-2407
itary	-2408
▁rights	-2409
▁animals	-2410
do	-2411
abase	-2412
▁farm	-2413
▁skills	-2414
▁princ	-2415
▁fram	-2416
▁opportun	-2417
▁max	-2418
based	-2419
▁remov	-2420
▁effective	-2421
acc	-2422
▁Fl	-2423
▁game	-2424
▁server	-2425
pri	-2426
rate	-2427
ety	-2428
->	-2429
ises	-2430
▁market	-2431
▁div	-2432
▁taking	-2433
▁region	-2434
ider	-2435
▁recent	-2436
gest	-2437
▁Other	-2438
▁column	-2439
▁Japan	-2440
▁II	-2441
▁running	-2442
▁services	-2443
▁months	-2444
▁context	-2445
▁attempt	-2446
▁instance	-2447
▁miss	-2448
ensive	-2449
▁green	-2450
▁fix	-2451
▁anything	-2452
ele	-2453
▁network	-2454
▁economic	-2455
▁respect	-2456
▁believe	-2457
andom	-2458
ttps	-2459
▁positive	-2460
key	-2461
bb	-2462
String	-2463
▁Par	-2464
▁liter	-2465
head	-2466
▁heat	-2467
▁Let	-2468
▁fat	-2469
▁suff	-2470
aving	-2471
iles	-2472
▁remain	-2473
▁directly	-2474
▁▁▁▁▁▁▁▁▁▁	-2475
▁Ne	-2476
▁force	-2477
left	-2478
imal	-2479
▁functions	-2480
ache	-2481
▁six	-2482
ribution	-2483
▁option	-2484
che	-2485
▁Although	-2486
▁takes	-2487
RE	-2488
itch	-2489
arily	-2490
▁length	-2491
uel	-2492
▁adult	-2493
dom	-2494
▁web	-2495
▁exerc	-2496
lex	-2497
tml	-2498
▁regular	-2499
ai	-2500
istance	-2501
icles	-2502
▁materials	-2503
▁According	-2504
▁theory	-2505
urs	-2506
▁ver	-2507
▁experim	-2508
▁->	-2509
▁tried	-2510
▁sometimes	-2511
▁experien	-2512
roup	-2513
▁skin	-2514
▁lines	-2515
book	-2516
▁clean	-2517
▁management	-2518
ribute	-2519
▁fish	-2520
▁temperature	-2521
wise	-2522
▁prote	-2523
▁online	-2524
ese	-2525
▁Cons	-2526
artment	-2527
▁contains	-2528
];	-2529
▁Me	-2530
▁safe	-2531
▁stress	-2532
ze	-2533
▁mechan	-2534
ython	-2535
ster	-2536
▁objects	-2537
▁gas	-2538
▁conduct	-2539
▁factors	-2540
IS	-2541
ached	-2542
$,	-2543
uck	-2544
anced	-2545
▁feed	-2546
div	-2547
▁performance	-2548
ney	-2549
vere	-2550
▁began	-2551
▁isn	-2552
▁op	-2553
▁autom	-2554
▁popular	-2555
▁oil	-2556
asc	-2557
▁appl	-2558
▁contact	-2559
▁basic	-2560
▁colle	-2561
pid	-2562
▁display	-2563
ager	-2564
fect	-2565
▁series	-2566
▁music	-2567
inks	-2568
rm	-2569
rated	-2570
eters	-2571
▁dog	-2572
istics	-2573
▁heav	-2574
ming	-2575
▁expect	-2576
▁personal	-2577
oles	-2578
umb	-2579
▁anc	-2580
▁names	-2581
▁pict	-2582
▁origin	-2583
▁rev	-2584
▁outside	-2585
▁deal	-2586
▁increasing	-2587
▁Instit	-2588
▁default	-2589
ada	-2590
List	-2591
erous	-2592
▁Research	-2593
▁British	-2594
▁damage	-2595
▁id	-2596
▁assess	-2597
▁average	-2598
log	-2599
▁events	-2600
▁date	-2601
▁includes	-2602
test	-2603
bject	-2604
▁emb	-2605
▁Part	-2606
gar	-2607
▁base	-2608
IC	-2609
▁express	-2610
fl	-2611
▁prec	-2612
▁host	-2613
abor	-2614
ops	-2615
▁refer	-2616
▁parents	-2617
itude	-2618
▁designed	-2619
ss	-2620
▁company	-2621
▁throughout	-2622
het	-2623
ulated	-2624
▁fun	-2625
▁review	-2626
ls	-2627
haps	-2628
▁media	-2629
▁via	-2630
rie	-2631
eration	-2632
minist	-2633
astic	-2634
uration	-2635
▁mention	-2636
uth	-2637
itation	-2638
angle	-2639
estern	-2640
▁Min	-2641
▁healthy	-2642
ript	-2643
▁generally	-2644
▁message	-2645
ius	-2646
▁bring	-2647
▁travel	-2648
uge	-2649
▁caused	-2650
▁wrong	-2651
▁training	-2652
▁viol	-2653
▁quant	-2654
ucle	-2655
Con	-2656
▁webs	-2657
▁programs	-2658
▁gives	-2659
erson	-2660
▁earth	-2661
ecause	-2662
▁surv	-2663
▁Will	-2664
▁er	-2665
▁easily	-2666
▁allows	-2667
▁emer	-2668
▁commit	-2669
▁script	-2670
▁final	-2671
▁bad	-2672
▁eval	-2673
oring	-2674
▁thus	-2675
▁chemical	-2676
file	-2677
▁copy	-2678
ession	-2679
▁section	-2680
▁greater	-2681
ero	-2682
▁security	-2683
aches	-2684
▁useful	-2685
vey	-2686
abit	-2687
emic	-2688
ederal	-2689
▁)	-2690
▁medic	-2691
▁share	-2692
arr	-2693
▁rout	-2694
pper	-2695
▁Comp	-2696
▁users	-2697
hood	-2698
lt	-2699
rows	-2700
▁lack	-2701
▁mix	-2702
imately	-2703
time	-2704
▁ideas	-2705
mod	-2706
ror	-2707
▁reference	-2708
▁Pres	-2709
▁depend	-2710
▁coun	-2711
▁sleep	-2712
gram	-2713
▁love	-2714
aff	-2715
▁causes	-2716
reng	-2717
vant	-2718
}}	-2719
▁forms	-2720
ret	-2721
▁altern	-2722
▁consist	-2723
▁cou	-2724
aily	-2725
▁map	-2726
▁third	-2727
▁started	-2728
resp	-2729
QL	-2730
▁unique	-2731
▁sex	-2732
▁King	-2733
▁nothing	-2734
▁ago	-2735
abet	-2736
▁therefore	-2737
▁additional	-2738
▁sequ	-2739
▁defined	-2740
Data	-2741
data	-2742
▁involved	-2743
▁variable	-2744
▁void	-2745
▁individuals	-2746
lim	-2747
tes	-2748
▁industry	-2749
▁==	-2750
lands	-2751
▁Jew	-2752
rought	-2753
▁society	-2754
▁demon	-2755
atives	-2756
▁independ	-2757
▁micro	-2758
ided	-2759
▁Jan	-2760
▁controll	-2761
▁extra	-2762
▁spread	-2763
▁Tw	-2764
▁reported	-2765
▁bound	-2766
ights	-2767
▁tree	-2768
apter	-2769
▁cross	-2770
▁der	-2771
ades	-2772
ana	-2773
▁Reg	-2774
▁dire	-2775
▁everything	-2776
▁ang	-2777
▁appropri	-2778
▁School	-2779
▁determine	-2780
▁included	-2781
▁sources	-2782
iam	-2783
▁wild	-2784
rapy	-2785
▁helps	-2786
▁subst	-2787
▁ste	-2788
▁variety	-2789
▁benefits	-2790
▁soil	-2791
▁deep	-2792
▁Sim	-2793
rench	-2794
ha	-2795
▁tax	-2796
▁threat	-2797
▁Aug	-2798
duc	-2799
ament	-2800
▁index	-2801
orks	-2802
▁culture	-2803
cell	-2804
ceed	-2805
opt	-2806
▁Any	-2807
▁device	-2808
na	-2809
oly	-2810
Val	-2811
▁identify	-2812
▁movement	-2813
▁environmental	-2814
▁wa	-2815
▁won	-2816
▁led	-2817
edia	-2818
▁Mod	-2819
AC	-2820
su	-2821
▁construct	-2822
asons	-2823
▁face	-2824
▁Use	-2825
▁lives	-2826
rs	-2827
ocal	-2828
▁Jes	-2829
▁extreme	-2830
▁See	-2831
erve	-2832
▁flo	-2833
▁estim	-2834
▁achieve	-2835
OS	-2836
▁root	-2837
▁stri	-2838
▁camp	-2839
++	-2840
▁front	-2841
▁diagn	-2842
▁alg	-2843
osing	-2844
▁Count	-2845
▁continue	-2846
odes	-2847
▁particularly	-2848
▁larger	-2849
▁ir	-2850
ux	-2851
ners	-2852
rim	-2853
ML	-2854
ronic	-2855
▁harm	-2856
▁didn	-2857
▁late	-2858
yp	-2859
rast	-2860
class	-2861
mar	-2862
▁speed	-2863
▁Austral	-2864
▁ful	-2865
▁immedi	-2866
▁aware	-2867
▁Ac	-2868
▁schools	-2869
ricult	-2870
')	-2871
ening	-2872
▁Note	-2873
▁ensure	-2874
▁fem	-2875
cles	-2876
▁card	-2877
ement	-2878
▁Ret	-2879
▁eat	-2880
elling	-2881
oke	-2882
rec	-2883
▁bal	-2884
▁negative	-2885
▁</	-2886
▁inj	-2887
isions	-2888
▁ter	-2889
▁capt	-2890
cret	-2891
▁compan	-2892
ED	-2893
▁Even	-2894
▁poor	-2895
▁scientists	-2896
▁Gl	-2897
leg	-2898
olar	-2899
▁symb	-2900
▁video	-2901
nown	-2902
▁cover	-2903
xy	-2904
▁streng	-2905
▁expected	-2906
rew	-2907
mission	-2908
▁mom	-2909
unch	-2910
▁Are	-2911
▁produced	-2912
this	-2913
▁Russ	-2914
▁tools	-2915
plate	-2916
▁rules	-2917
▁primary	-2918
▁options	-2919
▁aff	-2920
ufact	-2921
▁wall	-2922
▁tests	-2923
Ar	-2924
▁serious	-2925
PI	-2926
▁transl	-2927
used	-2928
▁developing	-2929
▁fru	-2930
▁behind	-2931
▁software	-2932
▁Science	-2933
▁initial	-2934
▁Ju	-2935
uous	-2936
tings	-2937
▁Ser	-2938
▁magn	-2939
ervation	-2940
▁screen	-2941
ellow	-2942
ony	-2943
▁fast	-2944
osure	-2945
▁https	-2946
▁mount	-2947
▁active	-2948
▁ones	-2949
▁China	-2950
▁although	-2951
▁maintain	-2952
ternal	-2953
▁images	-2954
].	-2955
▁India	-2956
$$	-2957
▁features	-2958
▁situation	-2959
▁database	-2960
▁encou	-2961
ief	-2962
rial	-2963
▁attention	-2964
▁requires	-2965
▁Our	-2966
▁poly	-2967
▁compared	-2968
▁carbon	-2969
▁Just	-2970
▁Val	-2971
pi	-2972
igation	-2973
LL	-2974
rix	-2975
type	-2976
▁android	-2977
▁examples	-2978
▁?	-2979
▁note	-2980
▁Read	-2981
entially	-2982
▁hyd	-2983
▁ord	-2984
▁aud	-2985
▁feet	-2986
▁psych	-2987
▁Because	-2988
sq	-2989
vention	-2990
▁During	-2991
▁bott	-2992
▁proced	-2993
▁und	-2994
▁ast	-2995
▁thinking	-2996
▁compet	-2997
▁visit	-2998
ura	-2999
▁creating	-3000
omp	-3001
▁whose	-3002
▁Art	-3003
▁sus	-3004
▁electric	-3005
▁policy	-3006
▁Sm	-3007
▁poll	-3008
lement	-3009
▁night	-3010
▁properties	-3011
▁hor	-3012
ban	-3013
▁sea	-3014
▁sn	-3015
▁testing	-3016
▁remove	-3017
▁Sw	-3018
▁valid	-3019
▁currently	-3020
▁Cor	-3021
ula	-3022
▁Tra	-3023
▁fav	-3024
irit	-3025
ynam	-3026
▁sect	-3027
▁purpose	-3028
▁described	-3029
▁prep	-3030
▁graph	-3031
▁assum	-3032
▁constant	-3033
ography	-3034
▁location	-3035
▁prior	-3036
▁Of	-3037
▁wond	-3038
(\	-3039
atically	-3040
▁wood	-3041
erg	-3042
ocol	-3043
▁jo	-3044
Res	-3045
▁concent	-3046
uary	-3047
▁safety	-3048
▁quickly	-3049
▁Inst	-3050
see	-3051
▁cit	-3052
▁Mon	-3053
▁books	-3054
▁progress	-3055
");	-3056
▁assign	-3057
▁international	-3058
▁Center	-3059
ington	-3060
▁looks	-3061
▁Oct	-3062
▁explain	-3063
iff	-3064
▁mother	-3065
▁growing	-3066
ervice	-3067
▁went	-3068
ino	-3069
ounds	-3070
▁beginning	-3071
lier	-3072
osition	-3073
▁bacter	-3074
▁Char	-3075
inate	-3076
▁sort	-3077
▁princi	-3078
▁har	-3079
▁official	-3080
ying	-3081
▁box	-3082
▁fit	-3083
▁fine	-3084
▁interpre	-3085
▁Sch	-3086
comp	-3087
▁decre	-3088
▁config	-3089
▁warm	-3090
bar	-3091
▁foods	-3092
▁soon	-3093
net	-3094
▁thous	-3095
▁exactly	-3096
▁Fin	-3097
▁forest	-3098
rite	-3099
▁birth	-3100
omet	-3101
ocks	-3102
▁anyone	-3103
▁lif	-3104
off	-3105
▁animal	-3106
oud	-3107
▁German	-3108
▁apply	-3109
▁reve	-3110
▁Har	-3111
▁established	-3112
▁challeng	-3113
▁limit	-3114
▁minutes	-3115
▁dang	-3116
dis	-3117
▁style	-3118
Type	-3119
▁choose	-3120
ework	-3121
▁models	-3122
To	-3123
▁Che	-3124
▁rule	-3125
▁false	-3126
▁French	-3127
▁sil	-3128
▁speak	-3129
▁actual	-3130
▁Trans	-3131
uk	-3132
▁completely	-3133
▁limited	-3134
▁El	-3135
attle	-3136
▁click	-3137
▁becomes	-3138
OT	-3139
▁format	-3140
cal	-3141
▁vit	-3142
bor	-3143
▁European	-3144
come	-3145
▁offer	-3146
▁asked	-3147
▁Educ	-3148
▁held	-3149
▁tend	-3150
▁IS	-3151
olec	-3152
▁reflect	-3153
▁pan	-3154
▁goes	-3155
▁Child	-3156
▁nucle	-3157
▁demonstr	-3158
▁lost	-3159
▁aspect	-3160
▁random	-3161
undred	-3162
js	-3163
▁machine	-3164
▁center	-3165
▁analy	-3166
▁daily	-3167
▁cred	-3168
aly	-3169
▁received	-3170
ags	-3171
▁town	-3172
▁Apr	-3173
▁teachers	-3174
gn	-3175
ancy	-3176
rote	-3177
yond	-3178
▁emot	-3179
▁veget	-3180
egin	-3181
▁sust	-3182
▁civil	-3183
▁leaders	-3184
▁appropriate	-3185
ken	-3186
▁equal	-3187
▁basis	-3188
▁null	-3189
▁eth	-3190
▁categ	-3191
▁manufact	-3192
iency	-3193
▁scientific	-3194
hemat	-3195
met	-3196
▁String	-3197
▁military	-3198
room	-3199
▁bab	-3200
▁unit	-3201
▁adj	-3202
orith	-3203
▁foot	-3204
▁applications	-3205
▁virus	-3206
▁mis	-3207
term	-3208
umber	-3209
▁broad	-3210
ridge	-3211
Col	-3212
▁wind	-3213
fig	-3214
▁static	-3215
▁traditional	-3216
▁highly	-3217
▁Fran	-3218
istry	-3219
▁Using	-3220
▁Ant	-3221
▁Calif	-3222
string	-3223
ned	-3224
▁Aut	-3225
▁essential	-3226
▁March	-3227
We	-3228
▁ec	-3229
▁Institute	-3230
▁Indian	-3231
▁June	-3232
▁Mus	-3233
AM	-3234
ened	-3235
▁sold	-3236
▁changed	-3237
▁walk	-3238
pite	-3239
▁background	-3240
▁hot	-3241
ancial	-3242
▁collection	-3243
▁hope	-3244
▁Department	-3245
html	-3246
▁Dav	-3247
▁patient	-3248
actions	-3249
ystem	-3250
▁solar	-3251
erate	-3252
▁instit	-3253
rage	-3254
issions	-3255
▁Bar	-3256
▁humans	-3257
▁Test	-3258
▁items	-3259
NS	-3260
path	-3261
▁kids	-3262
ev	-3263
▁feature	-3264
▁figure	-3265
char	-3266
inct	-3267
▁Each	-3268
▁bur	-3269
▁connection	-3270
body	-3271
▁task	-3272
▁stay	-3273
resh	-3274
▁towards	-3275
▁trees	-3276
isms	-3277
▁den	-3278
ION	-3279
▁website	-3280
▁Jesus	-3281
yd	-3282
useum	-3283
▁CO	-3284
▁Windows	-3285
▁Another	-3286
▁named	-3287
▁companies	-3288
▁Bo	-3289
▁leading	-3290
mat	-3291
izes	-3292
▁advant	-3293
▁road	-3294
▁imag	-3295
def	-3296
java	-3297
▁approx	-3298
▁scale	-3299
▁recently	-3300
▁reach	-3301
▁Red	-3302
▁gets	-3303
▁supply	-3304
known	-3305
value	-3306
▁capac	-3307
▁critical	-3308
▁decision	-3309
lin	-3310
▁setting	-3311
▁International	-3312
▁Mat	-3313
abetes	-3314
iques	-3315
▁status	-3316
▁cam	-3317
▁details	-3318
▁dim	-3319
▁match	-3320
▁History	-3321
▁comment	-3322
▁fields	-3323
▁places	-3324
cks	-3325
▁central	-3326
▁Christian	-3327
▁separate	-3328
▁appears	-3329
▁devices	-3330
ornia	-3331
▁AS	-3332
▁shall	-3333
▁perfect	-3334
IV	-3335
▁allowed	-3336
▁reasons	-3337
▁goal	-3338
▁virt	-3339
▁families	-3340
▁smaller	-3341
▁middle	-3342
▁Over	-3343
▁member	-3344
Im	-3345
eks	-3346
ferences	-3347
▁existing	-3348
joy	-3349
====	-3350
▁store	-3351
▁exercise	-3352
▁interesting	-3353
itect	-3354
▁fight	-3355
▁sites	-3356
▁Lear	-3357
▁nation	-3358
orage	-3359
amples	-3360
▁ep	-3361
encies	-3362
▁Get	-3363
....	-3364
▁remains	-3365
rance	-3366
▁communities	-3367
▁Once	-3368
▁told	-3369
UR	-3370
▁saw	-3371
▁West	-3372
eal	-3373
rogen	-3374
▁eye	-3375
▁dark	-3376
▁Sub	-3377
▁expression	-3378
cean	-3379
point	-3380
uman	-3381
▁carry	-3382
▁hundred	-3383
▁followed	-3384
▁Java	-3385
▁recommend	-3386
▁Thus	-3387
▁doctor	-3388
▁Up	-3389
▁dry	-3390
▁vacc	-3391
▁California	-3392
ibly	-3393
ensity	-3394
iar	-3395
▁located	-3396
cil	-3397
▁classes	-3398
print	-3399
▁jud	-3400
▁fair	-3401
▁Press	-3402
lay	-3403
▁aim	-3404
▁agre	-3405
▁processes	-3406
▁transport	-3407
▁diseases	-3408
py	-3409
▁dead	-3410
hel	-3411
▁Sept	-3412
▁August	-3413
AD	-3414
outhern	-3415
▁north	-3416
active	-3417
inese	-3418
▁typically	-3419
change	-3420
▁Her	-3421
▁largest	-3422
▁Add	-3423
▁replace	-3424
▁wrote	-3425
▁projects	-3426
rror	-3427
ilos	-3428
▁behavi	-3429
▁List	-3430
▁mental	-3431
can	-3432
▁labor	-3433
▁Cur	-3434
▁contribut	-3435
▁inn	-3436
▁July	-3437
▁save	-3438
▁statement	-3439
▁rare	-3440
respond	-3441
▁severe	-3442
more	-3443
▁leave	-3444
▁library	-3445
▁receive	-3446
▁symbol	-3447
▁repe	-3448
▁African	-3449
▁Data	-3450
  	-3451
▁news	-3452
▁distance	-3453
▁protection	-3454
orthern	-3455
elt	-3456
▁track	-3457
▁Wash	-3458
▁cool	-3459
hens	-3460
▁height	-3461
ech	-3462
SE	-3463
udd	-3464
▁sec	-3465
▁moment	-3466
semb	-3467
▁stra	-3468
board	-3469
▁steps	-3470
oes	-3471
▁capital	-3472
▁protein	-3473
que	-3474
rael	-3475
rition	-3476
▁administ	-3477
▁mill	-3478
▁que	-3479
men	-3480
▁nearly	-3481
uries	-3482
▁repl	-3483
ris	-3484
sole	-3485
▁acid	-3486
ship	-3487
▁infection	-3488
▁applied	-3489
ica	-3490
▁predict	-3491
▁kill	-3492
acters	-3493
▁happens	-3494
▁gard	-3495
aught	-3496
▁arri	-3497
▁ancient	-3498
PA	-3499
▁algorith	-3500
▁influence	-3501
da	-3502
▁rates	-3503
tty	-3504
▁friend	-3505
ND	-3506
▁Gree	-3507
iers	-3508
▁sample	-3509
izations	-3510
▁brought	-3511
▁degree	-3512
▁drink	-3513
▁Web	-3514
▁exc	-3515
mitted	-3516
▁Post	-3517
▁habit	-3518
▁older	-3519
▁choice	-3520
▁yourself	-3521
▁clin	-3522
▁tiss	-3523
▁strateg	-3524
▁definition	-3525
▁Feb	-3526
▁bran	-3527
▁teaching	-3528
▁lib	-3529
▁window	-3530
sect	-3531
▁Cong	-3532
▁synt	-3533
▁worked	-3534
ologies	-3535
▁perhaps	-3536
enge	-3537
box	-3538
▁April	-3539
▁bul	-3540
▁respond	-3541
▁monitor	-3542
▁shape	-3543
▁except	-3544
▁thread	-3545
▁direction	-3546
year	-3547
which	-3548
▁argument	-3549
▁forces	-3550
▁season	-3551
▁distribution	-3552
▁hands	-3553
▁Africa	-3554
▁stru	-3555
airs	-3556
▁Mc	-3557
▁differences	-3558
▁establish	-3559
▁weeks	-3560
iot	-3561
▁remember	-3562
▁factor	-3563
▁himself	-3564
▁Develop	-3565
list	-3566
▁ign	-3567
otes	-3568
▁send	-3569
▁mid	-3570
▁stream	-3571
roy	-3572
Text	-3573
http	-3574
▁enjoy	-3575
”.	-3576
▁compar	-3577
aul	-3578
ails	-3579
▁###	-3580
▁Chinese	-3581
itable	-3582
post	-3583
ifically	-3584
▁beyond	-3585
▁President	-3586
sub	-3587
▁construction	-3588
▁conver	-3589
▁burn	-3590
▁mer	-3591
lick	-3592
with	-3593
oses	-3594
▁Thanks	-3595
gl	-3596
▁ten	-3597
▁passed	-3598
▁religious	-3599
overy	-3600
▁cast	-3601
anish	-3602
Wh	-3603
▁signal	-3604
▁cop	-3605
▁south	-3606
▁lat	-3607
▁benefit	-3608
ama	-3609
▁leaves	-3610
AB	-3611
▁correspond	-3612
▁gain	-3613
▁trade	-3614
user	-3615
▁worth	-3616
▁mut	-3617
▁stage	-3618
▁pick	-3619
▁earlier	-3620
▁instr	-3621
fort	-3622
▁convers	-3623
mosp	-3624
▁costs	-3625
orders	-3626
SS	-3627
var	-3628
▁High	-3629
▁beaut	-3630
▁starting	-3631
▁demand	-3632
▁workers	-3633
▁efficient	-3634
▁legal	-3635
▁Israel	-3636
▁born	-3637
rt	-3638
▁characters	-3639
▁techniques	-3640
▁River	-3641
▁financial	-3642
▁doc	-3643
▁rot	-3644
▁piece	-3645
▁inform	-3646
▁Google	-3647
sum	-3648
▁Arch	-3649
▁Black	-3650
▁obvious	-3651
ouch	-3652
▁vict	-3653
urg	-3654
▁miles	-3655
clude	-3656
odies	-3657
inated	-3658
coh	-3659
▁Govern	-3660
▁City	-3661
▁surround	-3662
▁communic	-3663
▁Vir	-3664
▁Journal	-3665
tained	-3666
ondon	-3667
▁evalu	-3668
▁Associ	-3669
▁bottom	-3670
▁Don	-3671
▁please	-3672
▁item	-3673
▁People	-3674
▁room	-3675
▁Rem	-3676
▁England	-3677
▁occurs	-3678
▁fold	-3679
▁guid	-3680
▁communication	-3681
▁_	-3682
";	-3683
▁hyp	-3684
▁January	-3685
▁eyes	-3686
▁Americans	-3687
▁Washington	-3688
▁Inter	-3689
▁father	-3690
▁sustain	-3691
=\	-3692
▁alone	-3693
CC	-3694
▁execut	-3695
ube	-3696
flow	-3697
▁king	-3698
hest	-3699
ipment	-3700
▁neigh	-3701
cember	-3702
iated	-3703
ingu	-3704
▁org	-3705
arrow	-3706
▁HT	-3707
▁trig	-3708
▁citiz	-3709
ovember	-3710
life	-3711
▁consequ	-3712
----------------	-3713
▁Rel	-3714
uit	-3715
▁components	-3716
▁egg	-3717
cast	-3718
▁Does	-3719
▁easier	-3720
▁visual	-3721
▁William	-3722
eleb	-3723
▁effort	-3724
omb	-3725
▁conflic	-3726
top	-3727
aid	-3728
inding	-3729
▁ball	-3730
rab	-3731
▁!	-3732
▁adults	-3733
▁son	-3734
▁Program	-3735
fo	-3736
med	-3737
▁molec	-3738
▁mag	-3739
▁adapt	-3740
▁Canada	-3741
pped	-3742
▁coming	-3743
▁everyone	-3744
urb	-3745
alle	-3746
▁died	-3747
▁fib	-3748
▁Techn	-3749
▁pow	-3750
▁fully	-3751
▁Gr	-3752
omy	-3753
rome	-3754
ener	-3755
▁Day	-3756
▁follows	-3757
UT	-3758
ico	-3759
▁rapid	-3760
▁mentioned	-3761
HE	-3762
clus	-3763
iate	-3764
▁Pol	-3765
▁Great	-3766
▁detect	-3767
▁Every	-3768
▁tim	-3769
iter	-3770
▁constit	-3771
▁coast	-3772
ham	-3773
px	-3774
vest	-3775
▁importance	-3776
▁Bi	-3777
▁rat	-3778
rypt	-3779
▁federal	-3780
rest	-3781
▁moving	-3782
ford	-3783
▁summer	-3784
▁responsible	-3785
▁veh	-3786
▁Ke	-3787
▁October	-3788
▁prefer	-3789
▁Spec	-3790
▁efforts	-3791
▁hous	-3792
Mod	-3793
▁cook	-3794
abel	-3795
era	-3796
▁agricult	-3797
▁successful	-3798
▁former	-3799
▁September	-3800
▁double	-3801
▁fa	-3802
▁gave	-3803
▁electr	-3804
▁picture	-3805
estic	-3806
▁Pat	-3807
▁operations	-3808
▁Education	-3809
▁spirit	-3810
▁transform	-3811
▁gradu	-3812
iny	-3813
▁insp	-3814
▁component	-3815
zz	-3816
▁giving	-3817
▁providing	-3818
▁cold	-3819
▁digital	-3820
▁anti	-3821
df	-3822
water	-3823
App	-3824
idents	-3825
▁affected	-3826
itis	-3827
▁ice	-3828
Value	-3829
▁expand	-3830
oe	-3831
rupt	-3832
▁Under	-3833
ought	-3834
mathbb	-3835
This	-3836
▁pretty	-3837
▁fuel	-3838
▁infl	-3839
pha	-3840
emy	-3841
▁actions	-3842
oming	-3843
▁drug	-3844
▁Def	-3845
▁client	-3846
▁п	-3847
plit	-3848
▁slight	-3849
map	-3850
▁waste	-3851
down	-3852
▁transfer	-3853
▁variables	-3854
▁relatively	-3855
iable	-3856
atform	-3857
mp	-3858
▁General	-3859
▁seek	-3860
▁dynam	-3861
▁teacher	-3862
▁Commun	-3863
edom	-3864
rieved	-3865
▁eating	-3866
▁connected	-3867
ogen	-3868
▁placed	-3869
but	-3870
orial	-3871
($	-3872
▁investig	-3873
▁layer	-3874
▁Church	-3875
▁Therefore	-3876
▁colon	-3877
rees	-3878
begin	-3879
▁upd	-3880
▁practices	-3881
▁hon	-3882
▁standards	-3883
▁ST	-3884
▁San	-3885
▁forward	-3886
lib	-3887
function	-3888
no	-3889
▁query	-3890
▁fear	-3891
▁opportunity	-3892
▁Book	-3893
▁mob	-3894
▁laws	-3895
▁Set	-3896
bre	-3897
▁blue	-3898
▁immediately	-3899
▁December	-3900
▁Law	-3901
raction	-3902
▁compil	-3903
▁wanted	-3904
▁solutions	-3905
▁answers	-3906
PS	-3907
▁discovered	-3908
▁SE	-3909
mark	-3910
▁bacteria	-3911
cd	-3912
▁reduced	-3913
force	-3914
▁weak	-3915
▁November	-3916
▁title	-3917
▁Park	-3918
ams	-3919
▁woman	-3920
▁incor	-3921
▁overall	-3922
▁sem	-3923
▁continued	-3924
▁IN	-3925
▁strength	-3926
Qu	-3927
phas	-3928
cohol	-3929
aled	-3930
▁cru	-3931
▁sugar	-3932
▁implementation	-3933
▁cultural	-3934
▁alternative	-3935
▁mode	-3936
▁infect	-3937
▁celeb	-3938
ns	-3939
Object	-3940
▁release	-3941
▁ID	-3942
pack	-3943
▁breat	-3944
▁Net	-3945
▁sche	-3946
related	-3947
▁Coun	-3948
▁economy	-3949
▁rock	-3950
▁equival	-3951
▁coord	-3952
▁chance	-3953
US	-3954
▁Out	-3955
▁DNA	-3956
▁illust	-3957
▁adding	-3958
▁operation	-3959
▁East	-3960
▁package	-3961
▁Mex	-3962
cho	-3963
▁atmosp	-3964
▁surpr	-3965
▁London	-3966
▁du	-3967
oday	-3968
▁measures	-3969
rc	-3970
▁dro	-3971
().	-3972
▁beg	-3973
ky	-3974
▁resource	-3975
lor	-3976
▁planet	-3977
▁native	-3978
II	-3979
▁bra	-3980
cial	-3981
clusion	-3982
▁formed	-3983
oted	-3984
requ	-3985
aling	-3986
▁increases	-3987
arian	-3988
ests	-3989
▁Water	-3990
igen	-3991
reate	-3992
▁purch	-3993
▁Germany	-3994
▁fig	-3995
ocation	-3996
▁County	-3997
▁alt	-3998
ares	-3999
▁eight	-4000
▁commonly	-4001
Int	-4002
▁Bas	-4003
▁mig	-4004
sl	-4005
▁swe	-4006
exp	-4007
▁toward	-4008
▁architect	-4009
▁Society	-4010
▁equipment	-4011
▁complic	-4012
▁pet	-4013
▁situ	-4014
icit	-4015
▁La	-4016
▁hom	-4017
▁gir	-4018
▁std	-4019
▁directory	-4020
▁handle	-4021
▁huge	-4022
▁Roman	-4023
▁wat	-4024
▁changing	-4025
▁exposure	-4026
des	-4027
▁Prof	-4028
▁square	-4029
▁diabetes	-4030
AP	-4031
isl	-4032
wide	-4033
▁ax	-4034
▁email	-4035
▁showed	-4036
▁Public	-4037
▁rob	-4038
pty	-4039
▁powerful	-4040
▁organization	-4041
▁Som	-4042
▁billion	-4043
rig	-4044
▁genetic	-4045
ara	-4046
▁winter	-4047
▁update	-4048
▁sch	-4049
▁records	-4050
alt	-4051
▁;	-4052
▁Bel	-4053
olute	-4054
▁rise	-4055
gra	-4056
▁ult	-4057
ously	-4058
reet	-4059
▁hit	-4060
▁scen	-4061
iring	-4062
▁internal	-4063
])	-4064
▁occup	-4065
ellig	-4066
oration	-4067
▁notes	-4068
▁gold	-4069
▁Class	-4070
RI	-4071
▁rain	-4072
▁pen	-4073
▁commerc	-4074
▁price	-4075
▁therapy	-4076
ortunately	-4077
▁exception	-4078
ATE	-4079
ref	-4080
▁UN	-4081
▁acqu	-4082
▁weather	-4083
▁presence	-4084
▁Lord	-4085
▁historical	-4086
▁identified	-4087
▁letter	-4088
▁suggests	-4089
▁Work	-4090
▁Their	-4091
▁friends	-4092
▁topic	-4093
▁Supp	-4094
▁patterns	-4095
▁vert	-4096
▁opin	-4097
ruary	-4098
▁qual	-4099
ctors	-4100
Class	-4101
▁relevant	-4102
▁birds	-4103
▁party	-4104
▁row	-4105
▁David	-4106
asks	-4107
▁Open	-4108
enty	-4109
iful	-4110
▁majority	-4111
▁Social	-4112
▁drive	-4113
▁clearly	-4114
▁auth	-4115
Context	-4116
gypt	-4117
rame	-4118
▁teach	-4119
▁eventually	-4120
roller	-4121
▁fill	-4122
pective	-4123
eta	-4124
▁core	-4125
▁loop	-4126
▁removed	-4127
▁divid	-4128
ocr	-4129
▁resistance	-4130
▁cand	-4131
▁round	-4132
▁destroy	-4133
▁pages	-4134
▁enh	-4135
▁button	-4136
orge	-4137
▁interested	-4138
▁foreign	-4139
atever	-4140
то	-4141
▁spect	-4142
▁professional	-4143
▁vill	-4144
ste	-4145
field	-4146
▁counter	-4147
▁switch	-4148
abilities	-4149
▁maximum	-4150
▁Environment	-4151
rief	-4152
▁combination	-4153
▁Vol	-4154
▁board	-4155
ees	-4156
▁Lat	-4157
▁tele	-4158
abled	-4159
▁solve	-4160
▁church	-4161
▁Internet	-4162
▁independent	-4163
By	-4164
ding	-4165
▁cert	-4166
▁pregn	-4167
Se	-4168
bra	-4169
ING	-4170
▁properly	-4171
oper	-4172
▁SQL	-4173
▁win	-4174
▁returns	-4175
▁define	-4176
oice	-4177
▁generate	-4178
▁password	-4179
▁pp	-4180
RO	-4181
▁saying	-4182
▁surg	-4183
hent	-4184
▁finding	-4185
icon	-4186
▁rich	-4187
error	-4188
▁Av	-4189
▁Retrieved	-4190
▁sets	-4191
▁Cour	-4192
stract	-4193
▁evolution	-4194
▁Egypt	-4195
call	-4196
▁Di	-4197
▁drugs	-4198
aign	-4199
ormal	-4200
▁Two	-4201
▁effic	-4202
▁star	-4203
▁House	-4204
▁observed	-4205
▁Both	-4206
▁Colle	-4207
▁Japanese	-4208
▁accur	-4209
▁acad	-4210
▁storage	-4211
▁bank	-4212
porary	-4213
▁moved	-4214
▁Further	-4215
▁zero	-4216
▁watch	-4217
▁aw	-4218
isation	-4219
ows	-4220
▁reports	-4221
▁highest	-4222
▁depending	-4223
▁strugg	-4224
ilosoph	-4225
asion	-4226
DA	-4227
▁capacity	-4228
▁mathemat	-4229
▁util	-4230
▁learned	-4231
▁width	-4232
▁guide	-4233
Man	-4234
▁dele	-4235
▁fruit	-4236
▁doub	-4237
▁sav	-4238
▁arr	-4239
ospital	-4240
▁journal	-4241
style	-4242
gress	-4243
Item	-4244
iant	-4245
▁discussion	-4246
Re	-4247
Time	-4248
ii	-4249
▁sequence	-4250
▁joint	-4251
Un	-4252
lication	-4253
▁Please	-4254
▁contract	-4255
▁regions	-4256
olve	-4257
▁esc	-4258
▁Congress	-4259
soft	-4260
▁pull	-4261
▁offers	-4262
▁requirements	-4263
▁`	-4264
▁Today	-4265
oding	-4266
▁Australia	-4267
acing	-4268
▁extremely	-4269
▁Bra	-4270
▁returned	-4271
perty	-4272
▁structures	-4273
▁belief	-4274
▁fresh	-4275
ado	-4276
urance	-4277
▁resulting	-4278
antic	-4279
EM	-4280
▁vary	-4281
ifying	-4282
works	-4283
▁Union	-4284
\\	-4285
▁Green	-4286
izer	-4287
ped	-4288
▁nor	-4289
▁Like	-4290
oting	-4291
▁balance	-4292
▁thousands	-4293
▁Phil	-4294
▁label	-4295
▁peace	-4296
▁cities	-4297
▁volume	-4298
▁NS	-4299
▁truth	-4300
▁faster	-4301
nect	-4302
▁shell	-4303
▁interface	-4304
och	-4305
▁mission	-4306
▁calls	-4307
”,	-4308
ios	-4309
DF	-4310
ij	-4311
▁otherwise	-4312
▁в	-4313
run	-4314
▁upper	-4315
▁February	-4316
olved	-4317
▁games	-4318
▁UK	-4319
ille	-4320
ias	-4321
essage	-4322
▁challenge	-4323
▁survey	-4324
▁describe	-4325
▁с	-4326
▁Where	-4327
ographic	-4328
▁female	-4329
▁river	-4330
▁favor	-4331
▁experiment	-4332
▁reb	-4333
crete	-4334
▁clos	-4335
▁parameters	-4336
▁Vis	-4337
iding	-4338
eline	-4339
▁baby	-4340
▁grass	-4341
▁explan	-4342
uls	-4343
▁Python	-4344
▁spring	-4345
▁sac	-4346
▁generated	-4347
road	-4348
▁Mor	-4349
apers	-4350
how	-4351
En	-4352
▁$(	-4353
▁nuclear	-4354
▁antib	-4355
ait	-4356
uses	-4357
▁flag	-4358
iences	-4359
▁absor	-4360
▁teeth	-4361
pace	-4362
▁advantage	-4363
▁$$\	-4364
▁Mich	-4365
▁confirm	-4366
▁linked	-4367
▁introduced	-4368
****	-4369
▁interpret	-4370
▁Sur	-4371
▁syn	-4372
▁Mac	-4373
EC	-4374
▁shared	-4375
ão	-4376
conds	-4377
▁signs	-4378
▁fixed	-4379
hesis	-4380
▁elim	-4381
▁stored	-4382
▁solid	-4383
▁Air	-4384
▁frequency	-4385
▁generation	-4386
Tr	-4387
pat	-4388
▁stories	-4389
house	-4390
▁Phys	-4391
▁comments	-4392
poses	-4393
aste	-4394
');	-4395
▁tox	-4396
▁illness	-4397
▁heavy	-4398
▁cycle	-4399
▁turned	-4400
omas	-4401
bin	-4402
vis	-4403
▁closed	-4404
▁math	-4405
▁module	-4406
▁office	-4407
▁citizens	-4408
aur	-4409
Form	-4410
▁links	-4411
▁~	-4412
▁court	-4413
ira	-4414
script	-4415
▁nav	-4416
idden	-4417
▁phen	-4418
▁Found	-4419
▁supported	-4420
▁mostly	-4421
▁API	-4422
▁seven	-4423
▁download	-4424
▁presented	-4425
▁depends	-4426
▁approximately	-4427
const	-4428
='	-4429
state	-4430
▁selected	-4431
ossible	-4432
▁Western	-4433
▁parameter	-4434
sec	-4435
▁processing	-4436
urt	-4437
▁Mark	-4438
▁ing	-4439
▁conv	-4440
nam	-4441
icks	-4442
▁compre	-4443
▁treated	-4444
▁performed	-4445
▁vector	-4446
▁assist	-4447
▁causing	-4448
osit	-4449
▁breast	-4450
▁roll	-4451
▁ple	-4452
ulating	-4453
▁simpl	-4454
▁Association	-4455
▁Well	-4456
isf	-4457
▁belong	-4458
urity	-4459
▁optim	-4460
▁units	-4461
▁attract	-4462
ipe	-4463
▁distinct	-4464
win	-4465
▁protected	-4466
▁meant	-4467
lam	-4468
▁tru	-4469
apping	-4470
▁France	-4471
▁finally	-4472
['	-4473
▁Human	-4474
▁emphas	-4475
▁containing	-4476
Exception	-4477
oul	-4478
▁impl	-4479
ala	-4480
iment	-4481
▁Off	-4482
▁significantly	-4483
▁James	-4484
▁tag	-4485
▁income	-4486
▁missing	-4487
▁released	-4488
▁Children	-4489
▁commercial	-4490
ride	-4491
Path	-4492
▁aren	-4493
▁mouth	-4494
▁Project	-4495
▁equivalent	-4496
▁findings	-4497
▁Ang	-4498
▁phase	-4499
stitution	-4500
▁Council	-4501
anging	-4502
▁insert	-4503
▁serve	-4504
rates	-4505
▁Food	-4506
▁sufficient	-4507
urally	-4508
▁/>	-4509
comm	-4510
ooth	-4511
onent	-4512
▁master	-4513
index	-4514
▁Make	-4515
ircraft	-4516
▁unf	-4517
level	-4518
▁exists	-4519
▁mist	-4520
▁trou	-4521
▁advance	-4522
Al	-4523
▁…	-4524
▁IP	-4525
▁adjust	-4526
File	-4527
▁apprec	-4528
▁immune	-4529
▁insect	-4530
annel	-4531
▁heard	-4532
▁believed	-4533
eding	-4534
▁challenges	-4535
▁opportunities	-4536
▁plans	-4537
ialog	-4538
▁minimum	-4539
code	-4540
position	-4541
▁noted	-4542
▁straight	-4543
▁Sun	-4544
▁film	-4545
▁Medic	-4546
▁estimated	-4547
▁identity	-4548
▁technique	-4549
▁Dem	-4550
▁languages	-4551
▁vitamin	-4552
▁isol	-4553
▁alcohol	-4554
▁assume	-4555
▁exhib	-4556
▁filter	-4557
ressed	-4558
▁carried	-4559
ributed	-4560
▁external	-4561
▁ded	-4562
▁decided	-4563
▁platform	-4564
▁showing	-4565
▁contrast	-4566
▁installed	-4567
An	-4568
IM	-4569
▁specifically	-4570
▁Jewish	-4571
▁recommended	-4572
erved	-4573
▁Instead	-4574
nes	-4575
▁Paul	-4576
width	-4577
▁hear	-4578
hand	-4579
▁fert	-4580
▁couple	-4581
▁gene	-4582
▁regarding	-4583
▁vision	-4584
ictionary	-4585
▁ready	-4586
For	-4587
igned	-4588
▁consumption	-4589
)\	-4590
▁catch	-4591
▁explore	-4592
aint	-4593
orph	-4594
▁Ev	-4595
oken	-4596
iced	-4597
▁creation	-4598
▁procedure	-4599
▁Second	-4600
));	-4601
▁mo	-4602
icip	-4603
▁Type	-4604
▁Students	-4605
▁liqu	-4606
▁obtain	-4607
▁univers	-4608
▁mal	-4609
▁authors	-4610
▁previously	-4611
ensions	-4612
▁Hel	-4613
Ind	-4614
iox	-4615
▁planning	-4616
▁minor	-4617
▁Its	-4618
ategy	-4619
▁determined	-4620
host	-4621
what	-4622
▁▁▁▁▁▁▁▁▁▁▁▁▁▁	-4623
atus	-4624
▁staff	-4625
▁notice	-4626
▁trust	-4627
▁strategies	-4628
▁lic	-4629
▁View	-4630
▁president	-4631
▁faith	-4632
▁male	-4633
rem	-4634
▁Plan	-4635
▁excess	-4636
▁Service	-4637
▁god	-4638
▁Micro	-4639
Set	-4640
▁anx	-4641
▁hour	-4642
gency	-4643
▁reality	-4644
▁Nat	-4645
________	-4646
▁Step	-4647
▁implic	-4648
▁algorithm	-4649
▁node	-4650
size	-4651
▁educational	-4652
elines	-4653
▁decades	-4654
▁Pal	-4655
▁dra	-4656
▁kid	-4657
▁buy	-4658
▁Tur	-4659
▁blog	-4660
▁nutri	-4661
ald	-4662
enth	-4663
anged	-4664
▁bed	-4665
▁java	-4666
xygen	-4667
▁muscle	-4668
Key	-4669
▁degrees	-4670
▁frequently	-4671
iling	-4672
▁drop	-4673
▁stim	-4674
▁technologies	-4675
▁Prot	-4676
▁innov	-4677
But	-4678
▁killed	-4679
eared	-4680
▁radio	-4681
▁compl	-4682
▁grant	-4683
sqrt	-4684
ructure	-4685
▁Direct	-4686
▁covered	-4687
▁Rev	-4688
cher	-4689
ipl	-4690
▁famous	-4691
hetic	-4692
▁hair	-4693
▁ship	-4694
▁aspects	-4695
▁strategy	-4696
▁Ob	-4697
▁metal	-4698
▁milk	-4699
▁collabor	-4700
▁Development	-4701
SA	-4702
▁populations	-4703
rier	-4704
▁Gra	-4705
▁settings	-4706
▁errors	-4707
pass	-4708
ria	-4709
allel	-4710
▁freedom	-4711
▁entry	-4712
▁slightly	-4713
TP	-4714
cel	-4715
ya	-4716
▁Del	-4717
oma	-4718
olid	-4719
▁sexual	-4720
▁circum	-4721
▁failure	-4722
▁literature	-4723
▁goals	-4724
▁battle	-4725
▁cro	-4726
Get	-4727
▁batter	-4728
tee	-4729
▁touch	-4730
▁emissions	-4731
▁Mary	-4732
▁tissue	-4733
ilter	-4734
▁Republic	-4735
▁seg	-4736
▁failed	-4737
▁Att	-4738
▁die	-4739
▁empty	-4740
▁reprodu	-4741
▁George	-4742
▁experiences	-4743
php	-4744
unk	-4745
spec	-4746
▁leads	-4747
▁College	-4748
▁secret	-4749
▁emp	-4750
ping	-4751
▁template	-4752
▁bodies	-4753
▁Spanish	-4754
▁continuous	-4755
RL	-4756
▁NAS	-4757
▁unless	-4758
ida	-4759
▁guess	-4760
▁charge	-4761
▁absolute	-4762
▁becoming	-4763
▁sand	-4764
My	-4765
parent	-4766
▁push	-4767
▁widely	-4768
▁certainly	-4769
ologist	-4770
▁nutrition	-4771
▁playing	-4772
>>	-4773
▁Port	-4774
▁decisions	-4775
onic	-4776
▁Pri	-4777
rices	-4778
▁articles	-4779
▁Mal	-4780
▁legisl	-4781
▁suggested	-4782
ander	-4783
▁clinical	-4784
from	-4785
▁urban	-4786
▁AD	-4787
CO	-4788
estion	-4789
▁arm	-4790
▁temperatures	-4791
eria	-4792
▁intended	-4793
inux	-4794
▁glass	-4795
}^{	-4796
▁motion	-4797
▁aircraft	-4798
▁novel	-4799
▁buildings	-4800
sembly	-4801
▁tour	-4802
▁theore	-4803
▁disorder	-4804
▁iron	-4805
▁campaign	-4806
▁domain	-4807
▁flex	-4808
▁Fore	-4809
▁About	-4810
▁electricity	-4811
▁rul	-4812
▁Government	-4813
MS	-4814
rum	-4815
osen	-4816
osite	-4817
ulf	-4818
▁wonder	-4819
▁organizations	-4820
▁File	-4821
▁classroom	-4822
bal	-4823
aped	-4824
▁Cath	-4825
▁household	-4826
isher	-4827
iverse	-4828
▁looked	-4829
amental	-4830
▁mel	-4831
▁explicit	-4832
▁hop	-4833
trans	-4834
la	-4835
▁Organ	-4836
array	-4837
group	-4838
BC	-4839
▁effectively	-4840
▁automatically	-4841
▁garden	-4842
▁proposed	-4843
▁plot	-4844
ishing	-4845
▁numerous	-4846
▁relationships	-4847
ords	-4848
▁lived	-4849
▁equation	-4850
▁manage	-4851
▁unc	-4852
Add	-4853
itz	-4854
using	-4855
▁whom	-4856
ifier	-4857
▁ideal	-4858
▁ocean	-4859
▁territ	-4860
mm	-4861
▁session	-4862
raint	-4863
▁reaction	-4864
ocket	-4865
▁island	-4866
▁matrix	-4867
iance	-4868
▁н	-4869
▁PC	-4870
comes	-4871
input	-4872
▁spot	-4873
▁referred	-4874
▁Ir	-4875
▁Yes	-4876
▁dangerous	-4877
▁remote	-4878
▁industrial	-4879
▁||	-4880
▁comprehens	-4881
▁kept	-4882
▁weap	-4883
▁medicine	-4884
▁Greek	-4885
▁depression	-4886
anges	-4887
rowser	-4888
▁radiation	-4889
▁##	-4890
▁indicate	-4891
▁Mount	-4892
▁Russian	-4893
▁highlight	-4894
▁letters	-4895
▁plastic	-4896
▁purposes	-4897
▁vul	-4898
▁satisf	-4899
▁helped	-4900
▁whatever	-4901
▁excell	-4902
▁spent	-4903
▁Rich	-4904
▁bond	-4905
CH	-4906
▁pieces	-4907
▁convert	-4908
▁visible	-4909
▁views	-4910
▁edit	-4911
▁involves	-4912
▁homes	-4913
▁feeling	-4914
icial	-4915
riage	-4916
▁documentation	-4917
ario	-4918
uing	-4919
ambda	-4920
arant	-4921
▁samples	-4922
▁conducted	-4923
▁Id	-4924
▁protocol	-4925
As	-4926
lo	-4927
rosc	-4928
▁advanced	-4929
asure	-4930
▁sounds	-4931
▁violence	-4932
▁bone	-4933
▁onto	-4934
▁Text	-4935
▁Expl	-4936
▁Scient	-4937
▁WH	-4938
▁Addition	-4939
▁extract	-4940
▁intellig	-4941
▁characteristics	-4942
rence	-4943
▁Rober	-4944
faces	-4945
▁flood	-4946
ologists	-4947
ructions	-4948
▁oxygen	-4949
▁Met	-4950
▁mic	-4951
▁partners	-4952
za	-4953
essel	-4954
etime	-4955
rations	-4956
ognitive	-4957
ded	-4958
ulum	-4959
▁dram	-4960
▁vs	-4961
▁involve	-4962
▁edge	-4963
▁Form	-4964
▁completed	-4965
iveness	-4966
ilit	-4967
▁Museum	-4968
▁NASA	-4969
▁White	-4970
▁credit	-4971
▁Old	-4972
item	-4973
▁susp	-4974
roke	-4975
▁cry	-4976
▁Space	-4977
hi	-4978
▁thick	-4979
▁policies	-4980
▁particles	-4981
▁Log	-4982
▁conflict	-4983
ENT	-4984
▁college	-4985
AA	-4986
▁annual	-4987
▁Try	-4988
▁participants	-4989
▁beautiful	-4990
▁physic	-4991
▁pure	-4992
▁diss	-4993
▁happened	-4994
▁plug	-4995
▁assessment	-4996
CE	-4997
▁resist	-4998
▁reached	-4999
▁practical	-5000
▁disorders	-5001
▁station	-5002
[]	-5003
▁served	-5004
▁Mart	-5005
▁starts	-5006
▁meeting	-5007
▁Stand	-5008
▁Island	-5009
tra	-5010
▁proof	-5011
▁Mr	-5012
▁principles	-5013
▁maybe	-5014
ago	-5015
well	-5016
▁Je	-5017
▁technical	-5018
▁prepar	-5019
color	-5020
Date	-5021
ball	-5022
roph	-5023
ieties	-5024
▁manner	-5025
▁\\	-5026
▁Budd	-5027
Requ	-5028
Error	-5029
▁Sen	-5030
▁song	-5031
▁fol	-5032
▁rh	-5033
▁frame	-5034
▁race	-5035
▁▁▁▁▁▁▁▁▁▁▁	-5036
▁reducing	-5037
ested	-5038
▁genes	-5039
}{\	-5040
▁stuff	-5041
▁advice	-5042
▁Life	-5043
stream	-5044
▁invent	-5045
▁helpful	-5046
▁trib	-5047
▁border	-5048
▁existence	-5049
▁tested	-5050
▁tum	-5051
▁attacks	-5052
kin	-5053
▁linear	-5054
▁console	-5055
▁northern	-5056
celer	-5057
rian	-5058
▁framework	-5059
ishes	-5060
IG	-5061
';	-5062
mary	-5063
▁allowing	-5064
▁risks	-5065
▁victim	-5066
Sh	-5067
resents	-5068
▁chronic	-5069
▁<-	-5070
inite	-5071
▁brother	-5072
▁sin	-5073
▁Time	-5074
▁atmosphere	-5075
▁ap	-5076
▁fluid	-5077
▁Server	-5078
aker	-5079
▁apparent	-5080
▁react	-5081
▁Main	-5082
▁meat	-5083
▁speech	-5084
rust	-5085
▁flight	-5086
▁occurred	-5087
icated	-5088
})	-5089
table	-5090
▁Object	-5091
▁Check	-5092
▁experienced	-5093
']	-5094
▁suppl	-5095
▁amounts	-5096
▁tasks	-5097
▁prove	-5098
▁mainly	-5099
▁Which	-5100
▁pal	-5101
▁prepared	-5102
▁Hen	-5103
apes	-5104
▁expert	-5105
▁q	-5106
▁combined	-5107
▁conservation	-5108
db	-5109
▁Finally	-5110
▁encourage	-5111
nergy	-5112
care	-5113
aughter	-5114
inst	-5115
ingly	-5116
▁Mem	-5117
▁Table	-5118
Query	-5119
▁spell	-5120
▁exposed	-5121
vision	-5122
▁Such	-5123
▁Thomas	-5124
▁organic	-5125
pan	-5126
omin	-5127
omic	-5128
▁Control	-5129
▁documents	-5130
▁arguments	-5131
▁Elect	-5132
▁Only	-5133
▁concepts	-5134
▁familiar	-5135
long	-5136
▁southern	-5137
▁situations	-5138
▁claims	-5139
▁Islam	-5140
▁colors	-5141
▁uns	-5142
standing	-5143
Sc	-5144
▁forced	-5145
▁Dist	-5146
LECT	-5147
▁Ben	-5148
berg	-5149
▁runs	-5150
ugg	-5151
▁religion	-5152
▁indeed	-5153
▁phone	-5154
▁represents	-5155
▁Ste	-5156
▁rough	-5157
▁landsc	-5158
▁detailed	-5159
▁fundamental	-5160
▁Ber	-5161
ptions	-5162
ancing	-5163
▁behaviour	-5164
▁possibly	-5165
On	-5166
▁inner	-5167
▁typical	-5168
example	-5169
isc	-5170
▁Sum	-5171
▁reduction	-5172
oyal	-5173
▁trial	-5174
Lay	-5175
zing	-5176
▁kinds	-5177
▁refers	-5178
▁Sec	-5179
▁echo	-5180
▁normally	-5181
▁Tex	-5182
▁Acad	-5183
▁latest	-5184
▁vessel	-5185
▁HIV	-5186
ifies	-5187
With	-5188
▁flat	-5189
▁split	-5190
▁talking	-5191
▁explained	-5192
▁Profess	-5193
▁phenomen	-5194
▁hyper	-5195
▁precise	-5196
▁correctly	-5197
▁efficiency	-5198
▁proport	-5199
▁depth	-5200
▁played	-5201
Test	-5202
ql	-5203
page	-5204
wood	-5205
fered	-5206
▁obtained	-5207
▁manufacture	-5208
▁throw	-5209
▁Arab	-5210
▁raised	-5211
pping	-5212
▁operating	-5213
ULL	-5214
dev	-5215
▁jobs	-5216
▁academic	-5217
▁restrict	-5218
▁Information	-5219
▁spaces	-5220
▁professor	-5221
'.	-5222
▁approaches	-5223
olf	-5224
rd	-5225
▁Jer	-5226
▁wel	-5227
▁SS	-5228
▁nit	-5229
▁trend	-5230
▁doll	-5231
▁stated	-5232
▁volunt	-5233
DE	-5234
▁owners	-5235
▁sed	-5236
▁operator	-5237
▁experts	-5238
▁concerns	-5239
▁dogs	-5240
otic	-5241
war	-5242
▁west	-5243
▁motiv	-5244
▁pil	-5245
▁asking	-5246
▁Mexico	-5247
▁philosoph	-5248
▁electrical	-5249
ras	-5250
▁frag	-5251
▁branch	-5252
▁creates	-5253
▁measured	-5254
▁perman	-5255
▁pip	-5256
▁Before	-5257
▁discover	-5258
▁consc	-5259
▁seconds	-5260
▁Atl	-5261
▁Group	-5262
▁Treat	-5263
▁brief	-5264
ga	-5265
▁Cle	-5266
▁clust	-5267
▁Que	-5268
ompl	-5269
▁Power	-5270
rangle	-5271
oviet	-5272
State	-5273
▁vulner	-5274
▁pun	-5275
osystem	-5276
▁morning	-5277
▁east	-5278
▁impossible	-5279
▁mere	-5280
▁explains	-5281
▁potentially	-5282
▁gar	-5283
▁nice	-5284
▁incorpor	-5285
▁perspective	-5286
}(	-5287
▁Medical	-5288
▁End	-5289
▁motor	-5290
▁waters	-5291
phi	-5292
▁lik	-5293
▁mac	-5294
▁Last	-5295
AG	-5296
▁Exp	-5297
▁instruction	-5298
unc	-5299
▁Kore	-5300
▁infections	-5301
▁Find	-5302
▁subs	-5303
ROM	-5304
▁Asia	-5305
▁subsequ	-5306
rick	-5307
▁apart	-5308
▁continues	-5309
▁Tem	-5310
▁eggs	-5311
ague	-5312
▁usage	-5313
▁engineering	-5314
zy	-5315
▁Miss	-5316
bi	-5317
▁inject	-5318
▁CD	-5319
▁secure	-5320
▁primarily	-5321
▁keeping	-5322
▁adop	-5323
▁despite	-5324
xx	-5325
othing	-5326
▁supposed	-5327
stood	-5328
▁player	-5329
Be	-5330
▁Bay	-5331
adian	-5332
document	-5333
▁promote	-5334
Def	-5335
▁remained	-5336
▁Sal	-5337
▁comfort	-5338
rep	-5339
▁fort	-5340
▁jour	-5341
▁accepted	-5342
sin	-5343
▁tab	-5344
▁yellow	-5345
ael	-5346
▁youth	-5347
eles	-5348
▁virtual	-5349
▁instrument	-5350
▁neut	-5351
▁container	-5352
If	-5353
▁);	-5354
init	-5355
agram	-5356
▁opinion	-5357
oking	-5358
▁wealth	-5359
▁circuit	-5360
':	-5361
▁Rec	-5362
▁inh	-5363
OC	-5364
▁settle	-5365
▁Those	-5366
▁extent	-5367
▁surgery	-5368
▁chain	-5369
▁accompl	-5370
tage	-5371
cycl	-5372
▁Dec	-5373
ра	-5374
▁consists	-5375
Controller	-5376
▁News	-5377
▁begins	-5378
▁disapp	-5379
going	-5380
▁Medicine	-5381
▁consult	-5382
▁aid	-5383
▁Sam	-5384
▁Wik	-5385
ен	-5386
▁RE	-5387
▁Look	-5388
sm	-5389
▁hearing	-5390
rant	-5391
▁controlled	-5392
PU	-5393
▁stack	-5394
▁gender	-5395
▁accurate	-5396
Comp	-5397
▁Learning	-5398
▁density	-5399
asp	-5400
▁none	-5401
inger	-5402
▁train	-5403
bf	-5404
▁Virgin	-5405
▁Mass	-5406
▁ox	-5407
▁army	-5408
▁seed	-5409
ounced	-5410
aks	-5411
ears	-5412
cers	-5413
iform	-5414
HP	-5415
local	-5416
▁gram	-5417
▁boost	-5418
band	-5419
▁firm	-5420
▁chart	-5421
▁probability	-5422
▁shar	-5423
▁institutions	-5424
Image	-5425
lock	-5426
▁latter	-5427
west	-5428
▁HTML	-5429
version	-5430
▁leader	-5431
▁offered	-5432
acific	-5433
astern	-5434
▁Det	-5435
▁cere	-5436
igma	-5437
▁band	-5438
▁Source	-5439
gu	-5440
And	-5441
▁bill	-5442
▁logic	-5443
▁messages	-5444
▁spend	-5445
▁recorded	-5446
──	-5447
den	-5448
▁Central	-5449
▁improved	-5450
FF	-5451
▁lose	-5452
▁entirely	-5453
▁principle	-5454
▁programming	-5455
▁inflamm	-5456
▁Fe	-5457
▁therm	-5458
▁Muslim	-5459
▁helping	-5460
▁thoughts	-5461
arter	-5462
▁explanation	-5463
anguage	-5464
▁injury	-5465
▁largely	-5466
▁wave	-5467
ipped	-5468
oom	-5469
▁Long	-5470
oor	-5471
▁authority	-5472
uzz	-5473
▁Good	-5474
▁wife	-5475
▁leaving	-5476
▁excellent	-5477
▁Bible	-5478
▁grand	-5479
Model	-5480
▁twice	-5481
(),	-5482
zon	-5483
▁tells	-5484
▁collected	-5485
vas	-5486
▁pair	-5487
enced	-5488
riculum	-5489
▁Britain	-5490
UI	-5491
ycl	-5492
query	-5493
▁profession	-5494
▁Key	-5495
▁Figure	-5496
▁columns	-5497
▁THE	-5498
▁storm	-5499
▁Sat	-5500
▁extension	-5501
▁Civil	-5502
▁sides	-5503
OL	-5504
▁listed	-5505
▁versions	-5506
ributes	-5507
▁Common	-5508
▁voice	-5509
▁category	-5510
▁tro	-5511
▁salt	-5512
▁Start	-5513
▁Mont	-5514
▁Date	-5515
ramework	-5516
bed	-5517
▁UI	-5518
▁snow	-5519
▁Soviet	-5520
▁Through	-5521
▁anxiety	-5522
content	-5523
▁pollution	-5524
cluding	-5525
▁JS	-5526
▁enable	-5527
▁Texas	-5528
▁obser	-5529
▁managed	-5530
▁consequences	-5531
ensus	-5532
ka	-5533
▁Take	-5534
▁diam	-5535
rh	-5536
Ph	-5537
td	-5538
umer	-5539
▁Pub	-5540
▁unlike	-5541
▁kn	-5542
▁formula	-5543
▁Mil	-5544
under	-5545
▁felt	-5546
▁tables	-5547
▁centuries	-5548
▁blocks	-5549
Act	-5550
▁km	-5551
▁taught	-5552
▁divided	-5553
▁Court	-5554
ipedia	-5555
draw	-5556
alpha	-5557
▁join	-5558
▁Latin	-5559
▁formal	-5560
▁concerned	-5561
lers	-5562
▁Nav	-5563
▁persons	-5564
▁phr	-5565
ses	-5566
▁fif	-5567
▁liquid	-5568
▁players	-5569
▁vegetables	-5570
▁calling	-5571
van	-5572
▁Code	-5573
▁formation	-5574
▁portion	-5575
▁Yet	-5576
amily	-5577
last	-5578
akers	-5579
▁farmers	-5580
inating	-5581
▁Library	-5582
▁rows	-5583
xml	-5584
▁Build	-5585
▁tooth	-5586
▁candid	-5587
enses	-5588
rary	-5589
SQL	-5590
▁Method	-5591
He	-5592
▁Conf	-5593
config	-5594
layout	-5595
▁rid	-5596
▁girls	-5597
▁configuration	-5598
rating	-5599
▁emotional	-5600
▁Engine	-5601
▁sett	-5602
▁decide	-5603
rays	-5604
▁appoint	-5605
▁Jews	-5606
▁Histor	-5607
▁reject	-5608
fill	-5609
▁NOT	-5610
▁foss	-5611
main	-5612
▁render	-5613
▁^	-5614
▁hypot	-5615
▁topics	-5616
▁sentence	-5617
▁Inc	-5618
Array	-5619
▁Jose	-5620
▁knew	-5621
▁bright	-5622
uable	-5623
▁facts	-5624
▁lesson	-5625
alysis	-5626
▁guarant	-5627
,\	-5628
▁deploy	-5629
▁Fire	-5630
Par	-5631
▁Back	-5632
▁pros	-5633
UN	-5634
▁parallel	-5635
▁Unf	-5636
▁Commission	-5637
All	-5638
}$$	-5639
acts	-5640
cs	-5641
▁ED	-5642
▁mort	-5643
cluded	-5644
▁Technology	-5645
▁derived	-5646
▁expensive	-5647
▁Current	-5648
▁focused	-5649
▁chemicals	-5650
mail	-5651
▁URL	-5652
ansion	-5653
▁convent	-5654
▁tail	-5655
▁distingu	-5656
▁buff	-5657
▁coal	-5658
ersion	-5659
▁diagnosis	-5660
open	-5661
▁Have	-5662
▁wire	-5663
▁Energy	-5664
inations	-5665
▁recognized	-5666
imer	-5667
▁Middle	-5668
▁Women	-5669
▁Follow	-5670
▁opened	-5671
▁hundreds	-5672
gebra	-5673
▁chapter	-5674
▁folder	-5675
▁discussed	-5676
▁turns	-5677
▁describes	-5678
▁quantum	-5679
User	-5680
▁wants	-5681
)(	-5682
▁OS	-5683
▁Home	-5684
▁wish	-5685
free	-5686
▁flowers	-5687
ть	-5688
▁renew	-5689
но	-5690
▁cra	-5691
idget	-5692
:\	-5693
▁selection	-5694
▁Lou	-5695
▁});	-5696
▁Ham	-5697
▁circumst	-5698
▁police	-5699
]]	-5700
▁stars	-5701
▁toxic	-5702
/>	-5703
▁и	-5704
link	-5705
ny	-5706
▁compare	-5707
▁Nor	-5708
fra	-5709
▁necessarily	-5710
▁essay	-5711
▁unknown	-5712
▁wait	-5713
▁yes	-5714
▁stick	-5715
▁substant	-5716
Request	-5717
▁Army	-5718
▁lots	-5719
▁internet	-5720
inder	-5721
▁agree	-5722
▁Russia	-5723
verty	-5724
rich	-5725
▁Saf	-5726
web	-5727
▁transition	-5728
▁grid	-5729
▁export	-5730
▁supports	-5731
▁contribute	-5732
▁Hol	-5733
▁poverty	-5734
▁possibility	-5735
▁shut	-5736
▁Mag	-5737
▁Rad	-5738
atric	-5739
▁Math	-5740
▁prison	-5741
Of	-5742
▁repeated	-5743
▁successfully	-5744
▁appeared	-5745
▁Br	-5746
car	-5747
ini	-5748
agon	-5749
select	-5750
▁nan	-5751
▁keys	-5752
▁grade	-5753
▁computers	-5754
Pl	-5755
▁seeds	-5756
▁studied	-5757
▁knows	-5758
▁biological	-5759
▁Bre	-5760
▁initi	-5761
▁revolution	-5762
▁emergency	-5763
▁seeing	-5764
▁horiz	-5765
RA	-5766
▁lov	-5767
▁originally	-5768
){	-5769
normal	-5770
").	-5771
-\	-5772
▁park	-5773
▁sector	-5774
▁vast	-5775
ndrome	-5776
▁responsibility	-5777
nic	-5778
anda	-5779
▁shad	-5780
current	-5781
▁Who	-5782
▁concentration	-5783
▁Prov	-5784
▁raise	-5785
▁greatest	-5786
▁circle	-5787
Event	-5788
▁Catholic	-5789
▁manif	-5790
▁produces	-5791
Is	-5792
abil	-5793
▁mobile	-5794
▁remaining	-5795
aven	-5796
▁paid	-5797
NET	-5798
▁shift	-5799
oto	-5800
▁floor	-5801
▁exchange	-5802
ca	-5803
▁lock	-5804
▁stone	-5805
▁sustainable	-5806
▁awareness	-5807
▁drinking	-5808
ki	-5809
.;	-5810
▁vote	-5811
▁Econom	-5812
ometry	-5813
▁monitoring	-5814
▁minim	-5815
▁Despite	-5816
vity	-5817
▁wet	-5818
kins	-5819
▁vent	-5820
Manager	-5821
▁nations	-5822
▁specified	-5823
▁Keep	-5824
▁astron	-5825
▁Unfortunately	-5826
▁thin	-5827
▁implemented	-5828
▁plane	-5829
▁surrounding	-5830
yles	-5831
▁amb	-5832
▁ends	-5833
▁Click	-5834
▁closely	-5835
▁clim	-5836
▁naturally	-5837
▁unable	-5838
▁Flor	-5839
orter	-5840
▁Wild	-5841
pes	-5842
▁fle	-5843
▁comparison	-5844
▁Review	-5845
ypes	-5846
▁hospital	-5847
BN	-5848
▁affects	-5849
▁Leg	-5850
▁&&	-5851
▁Bet	-5852
▁warning	-5853
ville	-5854
section	-5855
▁smart	-5856
osa	-5857
▁git	-5858
Table	-5859
▁Robert	-5860
object	-5861
▁Nature	-5862
▁launch	-5863
▁·	-5864
▁AND	-5865
▁elev	-5866
▁traffic	-5867
itan	-5868
▁stem	-5869
▁satell	-5870
fty	-5871
▁opening	-5872
▁cris	-5873
▁Const	-5874
▁wasn	-5875
▁bow	-5876
Line	-5877
true	-5878
▁bird	-5879
▁browser	-5880
▁subjects	-5881
▁narrow	-5882
▁Pacific	-5883
IP	-5884
nection	-5885
dden	-5886
▁understood	-5887
cat	-5888
start	-5889
▁Ann	-5890
▁rank	-5891
ln	-5892
▁vehicle	-5893
▁prompt	-5894
▁roots	-5895
inity	-5896
▁strings	-5897
ifications	-5898
▁Mult	-5899
cis	-5900
▁broken	-5901
▁periods	-5902
▁к	-5903
▁yield	-5904
mic	-5905
▁MS	-5906
▁kil	-5907
sor	-5908
▁neighb	-5909
▁mechanism	-5910
▁Charles	-5911
look	-5912
length	-5913
▁Though	-5914
ibilities	-5915
▁interview	-5916
chers	-5917
nel	-5918
▁Sol	-5919
▁bud	-5920
▁tips	-5921
ellect	-5922
▁discovery	-5923
▁interests	-5924
racy	-5925
istan	-5926
▁vaccine	-5927
▁capable	-5928
▁font	-5929
▁Smith	-5930
▁Sl	-5931
▁authent	-5932
otal	-5933
othe	-5934
hist	-5935
▁tun	-5936
▁auto	-5937
▁agricultural	-5938
▁regist	-5939
Log	-5940
▁parties	-5941
▁attribute	-5942
▁suc	-5943
mathrm	-5944
▁ratio	-5945
▁Example	-5946
ups	-5947
▁Dise	-5948
▁immun	-5949
▁medium	-5950
▁Studies	-5951
▁recognize	-5952
▁Pers	-5953
▁acceler	-5954
aph	-5955
▁Bul	-5956
▁corresponding	-5957
▁ 	-5958
inates	-5959
▁officials	-5960
reland	-5961
Ad	-5962
▁Equ	-5963
▁resolution	-5964
▁stret	-5965
▁pictures	-5966
▁Sometimes	-5967
▁chosen	-5968
rolog	-5969
▁consistent	-5970
▁cognitive	-5971
elta	-5972
Read	-5973
▁Global	-5974
▁discrim	-5975
▁career	-5976
that	-5977
ceived	-5978
OW	-5979
▁inher	-5980
▁desired	-5981
▁tut	-5982
?”	-5983
▁deliver	-5984
▁mit	-5985
▁Comput	-5986
build	-5987
itness	-5988
▁cards	-5989
▁Foundation	-5990
image	-5991
▁smooth	-5992
▁Management	-5993
▁Mo	-5994
count	-5995
▁sudden	-5996
▁updated	-5997
plete	-5998
▁voltage	-5999
▁ecosystem	-6000
fall	-6001
▁suitable	-6002
▁Sea	-6003
▁rub	-6004
▁Ap	-6005
▁PM	-6006
option	-6007
▁walls	-6008
▁pray	-6009
▁networks	-6010
cm	-6011
▁horm	-6012
▁Company	-6013
▁spiritual	-6014
imens	-6015
▁replaced	-6016
▁increasingly	-6017
▁gun	-6018
▁Linux	-6019
▁extended	-6020
▁instructions	-6021
▁Free	-6022
▁Sk	-6023
▁investment	-6024
▁Ext	-6025
▁marked	-6026
ita	-6027
▁Land	-6028
▁maps	-6029
hma	-6030
▁route	-6031
▁Gal	-6032
▁vital	-6033
▁accounts	-6034
}_{	-6035
▁habitat	-6036
IR	-6037
▁noise	-6038
▁Inf	-6039
▁reader	-6040
▁Environmental	-6041
orrow	-6042
▁ages	-6043
▁stock	-6044
▁somewhat	-6045
▁Div	-6046
alian	-6047
▁worse	-6048
▁impacts	-6049
▁governments	-6050
▁ban	-6051
▁moral	-6052
▁disk	-6053
▁haven	-6054
▁decrease	-6055
▁relation	-6056
osc	-6057
▁angle	-6058
android	-6059
▁indu	-6060
▁speaking	-6061
▁reform	-6062
▁treatments	-6063
▁sen	-6064
▁www	-6065
itors	-6066
pm	-6067
▁goods	-6068
▁moist	-6069
▁outcomes	-6070
▁acts	-6071
▁<<	-6072
tem	-6073
========	-6074
▁Dan	-6075
▁perm	-6076
▁represented	-6077
▁holds	-6078
▁underlying	-6079
▁metab	-6080
▁fly	-6081
▁Word	-6082
▁glob	-6083
▁Psych	-6084
etch	-6085
▁raw	-6086
▁indicates	-6087
▁muscles	-6088
▁Whe	-6089
▁fro	-6090
▁contem	-6091
url	-6092
▁Name	-6093
▁domestic	-6094
▁Ireland	-6095
▁opposite	-6096
▁moon	-6097
▁immig	-6098
▁greatly	-6099
▁rail	-6100
▁chief	-6101
▁rapidly	-6102
▁achieved	-6103
urd	-6104
▁western	-6105
▁Bro	-6106
▁Lake	-6107
▁functional	-6108
Com	-6109
▁limits	-6110
▁pig	-6111
▁haz	-6112
lig	-6113
HT	-6114
▁Jo	-6115
▁Tor	-6116
▁connections	-6117
tenance	-6118
▁persist	-6119
▁proteins	-6120
▁procedures	-6121
};	-6122
▁Rights	-6123
New	-6124
pload	-6125
={	-6126
▁__	-6127
▁toler	-6128
▁director	-6129
ctic	-6130
Box	-6131
erves	-6132
▁tal	-6133
({	-6134
▁universe	-6135
▁delay	-6136
▁camera	-6137
▁san	-6138
▁liver	-6139
▁definite	-6140
▁Emp	-6141
▁doubt	-6142
itter	-6143
▁prices	-6144
▁interact	-6145
▁facilities	-6146
XX	-6147
▁windows	-6148
ificial	-6149
anta	-6150
▁url	-6151
▁Similar	-6152
▁allerg	-6153
▁powers	-6154
itud	-6155
some	-6156
▁strict	-6157
ervices	-6158
▁passing	-6159
rastructure	-6160
zen	-6161
}^	-6162
PD	-6163
▁recovery	-6164
▁marine	-6165
▁abuse	-6166
CL	-6167
▁};	-6168
▁wouldn	-6169
▁dream	-6170
vironments	-6171
OP	-6172
pers	-6173
usr	-6174
align	-6175
ipping	-6176
▁expressed	-6177
ository	-6178
ро	-6179
▁Writ	-6180
▁rural	-6181
▁Should	-6182
▁signals	-6183
max	-6184
▁Wil	-6185
▁Columb	-6186
▁conscious	-6187
▁movements	-6188
▁Pan	-6189
spring	-6190
▁crucial	-6191
▁myth	-6192
▁fairly	-6193
itage	-6194
▁User	-6195
▁introduction	-6196
▁bytes	-6197
ums	-6198
ools	-6199
▁Federal	-6200
plot	-6201
▁employees	-6202
▁cm	-6203
▁Ca	-6204
▁attached	-6205
CS	-6206
times	-6207
upp	-6208
▁Alex	-6209
▁foo	-6210
Index	-6211
▁tiny	-6212
▁Color	-6213
▁Peter	-6214
amma	-6215
▁sensitive	-6216
▁references	-6217
esh	-6218
ounter	-6219
Ser	-6220
▁pump	-6221
▁Henry	-6222
▁happy	-6223
▁accomp	-6224
▁filled	-6225
cdot	-6226
▁dut	-6227
eper	-6228
eger	-6229
▁locations	-6230
ibraries	-6231
▁dynamic	-6232
▁neither	-6233
LT	-6234
bran	-6235
▁zone	-6236
coming	-6237
▁Create	-6238
▁agreement	-6239
▁gone	-6240
▁millions	-6241
jo	-6242
▁Fre	-6243
icate	-6244
▁grown	-6245
▁door	-6246
▁trouble	-6247
▁estimate	-6248
▁FROM	-6249
▁cloud	-6250
display	-6251
▁secondary	-6252
inet	-6253
▁Access	-6254
▁ring	-6255
/.	-6256
▁crim	-6257
▁harvest	-6258
▁scope	-6259
▁ingred	-6260
▁Professor	-6261
foo	-6262
▁electron	-6263
uted	-6264
▁tow	-6265
▁Know	-6266
▁score	-6267
▁concrete	-6268
▁plate	-6269
▁prepare	-6270
▁Constitution	-6271
▁Big	-6272
mas	-6273
hell	-6274
▁thanks	-6275
▁Canadian	-6276
▁nutrients	-6277
infty	-6278
Map	-6279
ailed	-6280
▁slowly	-6281
▁ju	-6282
rine	-6283
▁crops	-6284
▁regularly	-6285
then	-6286
Stream	-6287
▁Given	-6288
▁rein	-6289
Size	-6290
)?	-6291
ferent	-6292
▁Android	-6293
▁producing	-6294
tical	-6295
▁drawing	-6296
ican	-6297
▁USA	-6298
Script	-6299
▁о	-6300
▁circumstances	-6301
bert	-6302
agues	-6303
▁desc	-6304
writ	-6305
▁pool	-6306
▁valuable	-6307
▁Carol	-6308
▁interaction	-6309
ua	-6310
ascular	-6311
▁modified	-6312
LS	-6313
▁Virginia	-6314
ernel	-6315
▁Gold	-6316
▁trad	-6317
heet	-6318
osph	-6319
▁rect	-6320
▁scene	-6321
ME	-6322
▁assert	-6323
▁Office	-6324
▁funding	-6325
▁driving	-6326
▁representation	-6327
tw	-6328
Build	-6329
▁clar	-6330
▁complicated	-6331
▁Str	-6332
▁lun	-6333
▁brown	-6334
▁choices	-6335
▁tub	-6336
▁Top	-6337
▁oral	-6338
▁arms	-6339
▁declared	-6340
▁figures	-6341
▁feelings	-6342
core	-6343
ture	-6344
▁residents	-6345
ota	-6346
▁defic	-6347
▁channel	-6348
▁Security	-6349
▁craft	-6350
ocratic	-6351
▁ble	-6352
▁delete	-6353
▁possess	-6354
▁controller	-6355
Le	-6356
umin	-6357
weight	-6358
▁basically	-6359
▁experiments	-6360
▁hunt	-6361
▁crisis	-6362
▁contained	-6363
▁Play	-6364
gent	-6365
tion	-6366
ontal	-6367
▁sell	-6368
▁massive	-6369
▁Sing	-6370
▁manip	-6371
▁curriculum	-6372
chron	-6373
Hand	-6374
greg	-6375
▁Edit	-6376
▁panel	-6377
▁sky	-6378
▁village	-6379
▁guidelines	-6380
ffee	-6381
▁waves	-6382
▁survival	-6383
CP	-6384
ipal	-6385
▁moves	-6386
▁deaths	-6387
▁capture	-6388
▁transmission	-6389
▁▁▁▁▁▁▁▁▁	-6390
▁Sign	-6391
▁closer	-6392
▁whereas	-6393
▁architecture	-6394
▁cos	-6395
▁fertil	-6396
▁Oh	-6397
craft	-6398
▁Consider	-6399
▁gather	-6400
king	-6401
▁Exper	-6402
▁Report	-6403
▁Model	-6404
include	-6405
▁myself	-6406
sts	-6407
▁stable	-6408
▁syntax	-6409
▁integer	-6410
▁percentage	-6411
▁statements	-6412
base	-6413
▁Kh	-6414
iology	-6415
lines	-6416
PE	-6417
▁regional	-6418
▁Commit	-6419
▁extends	-6420
▁routine	-6421
▁warming	-6422
▁Joseph	-6423
irt	-6424
▁houses	-6425
▁leadership	-6426
▁Jack	-6427
GB	-6428
▁("	-6429
nc	-6430
▁ancest	-6431
▁physics	-6432
())	-6433
▁appearance	-6434
▁mouse	-6435
▁museum	-6436
▁neighbor	-6437
▁suffering	-6438
▁Camb	-6439
▁skill	-6440
▁controls	-6441
’.	-6442
txt	-6443
Service	-6444
▁essentially	-6445
)=	-6446
OD	-6447
▁Francis	-6448
FS	-6449
▁menu	-6450
itative	-6451
▁propos	-6452
label	-6453
▁marriage	-6454
liament	-6455
▁adopted	-6456
▁commands	-6457
▁Ill	-6458
▁Next	-6459
▁corpor	-6460
▁Image	-6461
▁Labor	-6462
▁lessons	-6463
▁Microsoft	-6464
▁Non	-6465
phone	-6466
▁Face	-6467
inction	-6468
▁hidden	-6469
edy	-6470
▁poet	-6471
▁revealed	-6472
▁insurance	-6473
^{-	-6474
());	-6475
▁fruits	-6476
▁respectively	-6477
aria	-6478
▁Cult	-6479
▁advoc	-6480
ulin	-6481
▁ISBN	-6482
ye	-6483
CD	-6484
grad	-6485
▁bits	-6486
▁mamm	-6487
▁plus	-6488
What	-6489
▁prevention	-6490
title	-6491
▁Early	-6492
igenous	-6493
▁environments	-6494
▁era	-6495
otion	-6496
▁inches	-6497
ora	-6498
▁machines	-6499
arn	-6500
▁bones	-6501
▁justice	-6502
▁mountain	-6503
▁constraint	-6504
▁Lib	-6505
antly	-6506
▁imper	-6507
lements	-6508
You	-6509
▁comprehensive	-6510
onym	-6511
▁lists	-6512
▁Orig	-6513
▁prem	-6514
sql	-6515
uts	-6516
▁calculate	-6517
▁destroyed	-6518
child	-6519
▁trick	-6520
▁editor	-6521
▁difficulty	-6522
▁Cap	-6523
▁stages	-6524
▁substance	-6525
fit	-6526
avas	-6527
ERE	-6528
▁ships	-6529
ults	-6530
▁Florida	-6531
▁extensive	-6532
▁theme	-6533
▁Spring	-6534
isters	-6535
▁ran	-6536
▁Person	-6537
▁horse	-6538
▁usual	-6539
▁Cy	-6540
▁intellect	-6541
▁mixed	-6542
osh	-6543
▁posts	-6544
▁suffer	-6545
▁composition	-6546
▁finite	-6547
▁medications	-6548
▁hence	-6549
UE	-6550
Method	-6551
▁enhance	-6552
▁sharing	-6553
▁Call	-6554
▁prev	-6555
▁Change	-6556
.|	-6557
rus	-6558
▁Page	-6559
▁numer	-6560
sey	-6561
▁Pass	-6562
▁Stat	-6563
▁truly	-6564
').	-6565
ulator	-6566
▁Creat	-6567
umes	-6568
▁landscape	-6569
▁responses	-6570
scale	-6571
MA	-6572
▁Louis	-6573
▁troops	-6574
ola	-6575
▁!=	-6576
Button	-6577
▁expansion	-6578
▁Jud	-6579
▁cardi	-6580
▁conven	-6581
▁orient	-6582
▁infected	-6583
Over	-6584
oral	-6585
▁Nations	-6586
▁feedback	-6587
fix	-6588
▁Brown	-6589
▁succeed	-6590
▁facilit	-6591
called	-6592
▁Rob	-6593
▁narr	-6594
▁shot	-6595
▁businesses	-6596
▁desire	-6597
Web	-6598
ivery	-6599
▁Mill	-6600
ato	-6601
▁certific	-6602
ipher	-6603
▁pregnancy	-6604
isp	-6605
▁laun	-6606
▁pron	-6607
▁Cancer	-6608
▁forget	-6609
▁voc	-6610
▁fewer	-6611
such	-6612
▁dust	-6613
iration	-6614
▁Dif	-6615
▁Ess	-6616
▁thor	-6617
▁newsp	-6618
▁battery	-6619
▁creative	-6620
+\	-6621
▁soldiers	-6622
▁adequ	-6623
▁survive	-6624
fe	-6625
▁info	-6626
▁putting	-6627
stein	-6628
Or	-6629
irty	-6630
▁permanent	-6631
▁infrastructure	-6632
▁diversity	-6633
▁Design	-6634
aud	-6635
▁dialog	-6636
▁Disc	-6637
▁escape	-6638
▁plays	-6639
▁statistics	-6640
▁Furthermore	-6641
ads	-6642
oids	-6643
▁SELECT	-6644
▁python	-6645
ega	-6646
▁contents	-6647
▁Among	-6648
▁PHP	-6649
▁unus	-6650
▁scan	-6651
▁Chapter	-6652
▁maintenance	-6653
▁Chem	-6654
▁Natural	-6655
▁Est	-6656
first	-6657
▁cars	-6658
▁curve	-6659
ih	-6660
arg	-6661
▁carefully	-6662
Field	-6663
▁Ast	-6664
▁administration	-6665
▁NULL	-6666
▁Eth	-6667
while	-6668
▁Australian	-6669
▁aer	-6670
▁magnetic	-6671
▁Irish	-6672
▁colour	-6673
▁observations	-6674
abric	-6675
▁Vict	-6676
aration	-6677
▁Camp	-6678
▁III	-6679
▁Southern	-6680
▁improving	-6681
cos	-6682
▁Pop	-6683
▁worry	-6684
▁electronic	-6685
][	-6686
▁Dig	-6687
▁studying	-6688
▁wildlife	-6689
va	-6690
▁readers	-6691
lambda	-6692
▁wear	-6693
▁stands	-6694
▁:=	-6695
▁Michael	-6696
.’	-6697
isk	-6698
▁il	-6699
▁hydrogen	-6700
FT	-6701
▁ment	-6702
▁sheet	-6703
▁intake	-6704
▁Richard	-6705
agers	-6706
▁enemy	-6707
ching	-6708
oster	-6709
▁accum	-6710
▁antibiot	-6711
▁constitution	-6712
▁matters	-6713
▁district	-6714
api	-6715
▁alert	-6716
itt	-6717
▁plain	-6718
▁prime	-6719
▁specify	-6720
▁aqu	-6721
inn	-6722
▁tur	-6723
▁sight	-6724
▁Author	-6725
▁Select	-6726
▁standing	-6727
▁gall	-6728
▁afford	-6729
▁hardware	-6730
▁gal	-6731
▁hash	-6732
▁stroke	-6733
DP	-6734
▁layers	-6735
▁hus	-6736
▁photos	-6737
▁positions	-6738
▁immediate	-6739
▁attend	-6740
▁worldwide	-6741
▁alloc	-6742
▁happening	-6743
▁Moreover	-6744
▁daughter	-6745
▁Run	-6746
Layout	-6747
▁agriculture	-6748
lar	-6749
▁sick	-6750
▁vel	-6751
write	-6752
▁decline	-6753
▁noticed	-6754
▁administr	-6755
▁compr	-6756
▁Dev	-6757
clusive	-6758
▁assistance	-6759
br	-6760
▁doctors	-6761
▁thousand	-6762
TE	-6763
▁refuge	-6764
▁willing	-6765
ighter	-6766
▁sections	-6767
▁realize	-6768
uracy	-6769
▁issued	-6770
fish	-6771
▁listen	-6772
▁recall	-6773
▁cart	-6774
▁hydro	-6775
▁Sym	-6776
olean	-6777
▁ahead	-6778
▁intent	-6779
)^	-6780
▁layout	-6781
born	-6782
▁cryst	-6783
check	-6784
▁occasion	-6785
▁supplement	-6786
eries	-6787
Element	-6788
▁entered	-6789
kes	-6790
rub	-6791
organ	-6792
TS	-6793
▁Care	-6794
▁Learn	-6795
((	-6796
▁Cat	-6797
▁agencies	-6798
oose	-6799
process	-6800
▁diverse	-6801
▁saved	-6802
▁sweet	-6803
▁intelligence	-6804
oded	-6805
ponse	-6806
▁Italy	-6807
▁Study	-6808
cture	-6809
▁Hall	-6810
▁explo	-6811
▁binary	-6812
▁assigned	-6813
▁drawn	-6814
▁critic	-6815
▁pul	-6816
▁Den	-6817
▁din	-6818
▁ended	-6819
▁inflammation	-6820
iled	-6821
▁forg	-6822
▁Ox	-6823
▁bot	-6824
▁bug	-6825
rants	-6826
▁Mars	-6827
▁spin	-6828
▁lies	-6829
▁fighting	-6830
▁imagine	-6831
▁register	-6832
▁vehicles	-6833
▁audience	-6834
▁jump	-6835
▁obst	-6836
aser	-6837
ername	-6838
});	-6839
inking	-6840
ioxide	-6841
ena	-6842
▁Lu	-6843
▁tit	-6844
▁evaluate	-6845
▁mathematics	-6846
▁decade	-6847
▁shel	-6848
▁evaluation	-6849
cknow	-6850
package	-6851
▁couldn	-6852
▁organized	-6853
▁courses	-6854
▁authorities	-6855
iest	-6856
ashion	-6857
▁syndrome	-6858
▁dedicated	-6859
▁translation	-6860
?"	-6861
▁abund	-6862
▁finished	-6863
create	-6864
ropical	-6865
▁engage	-6866
medi	-6867
iability	-6868
▁struggle	-6869
▁Du	-6870
▁Mad	-6871
▁Mean	-6872
esity	-6873
raged	-6874
▁recycl	-6875
▁Additionally	-6876
hav	-6877
▁Native	-6878
▁anywhere	-6879
▁categories	-6880
▁gap	-6881
▁Chic	-6882
PL	-6883
Code	-6884
▁Clin	-6885
ет	-6886
▁bear	-6887
ymph	-6888
Ed	-6889
▁electro	-6890
▁purchase	-6891
Americ	-6892
▁Climate	-6893
▁Network	-6894
frame	-6895
▁papers	-6896
erals	-6897
▁Ma	-6898
▁Ins	-6899
icide	-6900
▁Viet	-6901
▁accident	-6902
eps	-6903
orous	-6904
▁nine	-6905
▁instruct	-6906
▁flav	-6907
estyle	-6908
tic	-6909
gers	-6910
Inter	-6911
being	-6912
▁amaz	-6913
▁laboratory	-6914
▁trigger	-6915
▁strongly	-6916
wing	-6917
▁leaf	-6918
▁ON	-6919
ector	-6920
▁photo	-6921
▁header	-6922
▁diagram	-6923
sue	-6924
▁($	-6925
▁da	-6926
▁foundation	-6927
Att	-6928
▁Men	-6929
▁defe	-6930
▁Three	-6931
▁estimates	-6932
height	-6933
▁Administ	-6934
dule	-6935
heast	-6936
ugh	-6937
zed	-6938
▁soul	-6939
▁improvement	-6940
▁shif	-6941
▁dependent	-6942
ampl	-6943
Point	-6944
▁compiler	-6945
▁Northern	-6946
▁hero	-6947
▁Effect	-6948
▁joined	-6949
Us	-6950
▁journey	-6951
IL	-6952
illing	-6953
▁setup	-6954
▁arrived	-6955
▁ourselves	-6956
▁budget	-6957
▁extend	-6958
▁insects	-6959
▁Adv	-6960
Select	-6961
▁agency	-6962
▁signed	-6963
▁communicate	-6964
▁supplies	-6965
▁volunte	-6966
▁discipl	-6967
▁colleagues	-6968
▁alle	-6969
▁tall	-6970
▁calcium	-6971
▁Bur	-6972
ocracy	-6973
▁customers	-6974
▁proceed	-6975
▁Wood	-6976
▁sports	-6977
▁photograph	-6978
▁distributed	-6979
DB	-6980
quit	-6981
▁Rome	-6982
▁hole	-6983
▁profile	-6984
▁instruments	-6985
utch	-6986
▁fossil	-6987
▁remark	-6988
home	-6989
▁Ref	-6990
ether	-6991
▁terminal	-6992
▁considering	-6993
▁]	-6994
▁mos	-6995
▁neck	-6996
node	-6997
▁Spain	-6998
▁writer	-6999
omach	-7000
▁adds	-7001
lets	-7002
untu	-7003
▁ultimately	-7004
▁Hy	-7005
json	-7006
aming	-7007
▁corn	-7008
▁alter	-7009
▁hab	-7010
CA	-7011
▁crop	-7012
icious	-7013
▁Academy	-7014
▁drag	-7015
icians	-7016
▁biggest	-7017
▁married	-7018
▁conclusion	-7019
▁supporting	-7020
avascript	-7021
▁driver	-7022
At	-7023
Des	-7024
▁arrange	-7025
just	-7026
▁Lab	-7027
utation	-7028
▁Po	-7029
▁forth	-7030
▁cultures	-7031
▁Right	-7032
▁holding	-7033
▁equations	-7034
▁minute	-7035
Info	-7036
▁objective	-7037
creen	-7038
▁Down	-7039
▁Max	-7040
▁measurement	-7041
ulus	-7042
▁involving	-7043
Color	-7044
▁Update	-7045
▁conventional	-7046
▁Line	-7047
mathcal	-7048
▁accessible	-7049
ст	-7050
▁dates	-7051
▁Street	-7052
CR	-7053
▁steel	-7054
▁forests	-7055
▁scheme	-7056
Aut	-7057
▁py	-7058
▁Again	-7059
▁permission	-7060
No	-7061
claim	-7062
▁Point	-7063
▁ul	-7064
person	-7065
▁Visual	-7066
▁earthqu	-7067
▁harmful	-7068
BS	-7069
▁constructed	-7070
’,	-7071
%)	-7072
▁demonstrate	-7073
▁outer	-7074
▁recip	-7075
olester	-7076
▁Dou	-7077
▁Spe	-7078
▁Committee	-7079
otype	-7080
▁Pract	-7081
itivity	-7082
▁university	-7083
▁Bank	-7084
▁float	-7085
atively	-7086
▁replic	-7087
▁walking	-7088
. 	-7089
exec	-7090
▁Init	-7091
pg	-7092
herent	-7093
▁institution	-7094
]:	-7095
elled	-7096
▁centre	-7097
▁founded	-7098
▁Empire	-7099
▁duplic	-7100
▁manufacturing	-7101
▁Sever	-7102
Out	-7103
▁younger	-7104
▁abstract	-7105
▁childhood	-7106
There	-7107
root	-7108
▁Error	-7109
legal	-7110
▁dioxide	-7111
▁territory	-7112
▁funds	-7113
▁Facebook	-7114
▁fasc	-7115
▁shop	-7116
▁medication	-7117
▁sacr	-7118
▁Italian	-7119
▁knowing	-7120
▁uniform	-7121
▁orbit	-7122
conf	-7123
mu	-7124
UM	-7125
andon	-7126
ented	-7127
cribed	-7128
▁vertical	-7129
▁receiving	-7130
▁Copy	-7131
▁merely	-7132
▁molecules	-7133
"/>	-7134
▁opposed	-7135
▁confidence	-7136
ре	-7137
▁measurements	-7138
▁ske	-7139
Trans	-7140
product	-7141
▁>>>	-7142
press	-7143
▁Language	-7144
"]	-7145
▁Age	-7146
mathbf	-7147
▁Super	-7148
▁professionals	-7149
illa	-7150
ocker	-7151
▁mand	-7152
▁award	-7153
▁surve	-7154
agraph	-7155
abul	-7156
▁embed	-7157
▁Perhaps	-7158
▁consumer	-7159
▁mechanisms	-7160
ione	-7161
ATION	-7162
▁dealing	-7163
burg	-7164
▁lands	-7165
▁ordered	-7166
▁infinite	-7167
aked	-7168
umps	-7169
▁pra	-7170
","	-7171
▁OF	-7172
▁Penn	-7173
▁audio	-7174
▁acknow	-7175
▁housing	-7176
▁presentation	-7177
▁interactions	-7178
▁beneficial	-7179
uma	-7180
untime	-7181
▁negot	-7182
▁Wikipedia	-7183
▁attach	-7184
▁debate	-7185
▁election	-7186
▁libraries	-7187
▁philosophy	-7188
▁OR	-7189
▁pointed	-7190
IF	-7191
▁Mer	-7192
▁nodes	-7193
fs	-7194
▁chrom	-7195
▁instances	-7196
▁vulnerable	-7197
▁ce	-7198
▁corner	-7199
▁county	-7200
▁Ok	-7201
▁bread	-7202
▁rely	-7203
▁analog	-7204
▁weapons	-7205
Bar	-7206
▁resulted	-7207
▁Ent	-7208
▁Ver	-7209
▁Cast	-7210
atabase	-7211
▁execute	-7212
▁DE	-7213
▁blow	-7214
▁Paris	-7215
▁rising	-7216
▁reasonable	-7217
▁Star	-7218
▁covers	-7219
OST	-7220
ocy	-7221
olesterol	-7222
▁mine	-7223
▁nearby	-7224
▁witness	-7225
▁sod	-7226
▁division	-7227
▁explicitly	-7228
▁tea	-7229
▁taste	-7230
▁twenty	-7231
lder	-7232
ync	-7233
▁Lar	-7234
▁Hand	-7235
▁Board	-7236
▁Gre	-7237
▁somewhere	-7238
ello	-7239
ulates	-7240
Message	-7241
▁consumers	-7242
▁bigger	-7243
▁mathematical	-7244
zil	-7245
▁attempts	-7246
▁rig	-7247
▁Times	-7248
▁injuries	-7249
▁"$	-7250
▁relax	-7251
▁regulations	-7252
▁MD	-7253
cons	-7254
▁Jul	-7255
▁mice	-7256
▁demonstrated	-7257
▁Question	-7258
real	-7259
▁Nov	-7260
▁coffee	-7261
▁Without	-7262
EE	-7263
istical	-7264
▁AR	-7265
▁Guide	-7266
▁intervention	-7267
Tem	-7268
_{\	-7269
▁fault	-7270
▁Royal	-7271
▁operate	-7272
▁seemed	-7273
▁cutting	-7274
▁kit	-7275
▁Martin	-7276
▁Article	-7277
▁EDIT	-7278
▁requests	-7279
▁roof	-7280
iple	-7281
ocity	-7282
▁street	-7283
▁reliable	-7284
PR	-7285
HA	-7286
▁bridge	-7287
▁Problem	-7288
athe	-7289
esis	-7290
riers	-7291
Content	-7292
▁committed	-7293
ibl	-7294
▁spr	-7295
alog	-7296
▁Bus	-7297
peror	-7298
▁algebra	-7299
onia	-7300
▁gate	-7301
ushed	-7302
▁reactions	-7303
▁Chicago	-7304
▁stomach	-7305
▁src	-7306
▁delivery	-7307
throp	-7308
Source	-7309
▁correl	-7310
▁Connect	-7311
▁examine	-7312
including	-7313
▁interpretation	-7314
uh	-7315
▁Valley	-7316
▁fourth	-7317
ename	-7318
omial	-7319
▁acids	-7320
De	-7321
iki	-7322
only	-7323
▁complexity	-7324
▁employment	-7325
▁Never	-7326
▁roughly	-7327
▁frequent	-7328
▁association	-7329
Property	-7330
▁edition	-7331
▁outcome	-7332
▁Frank	-7333
▁meters	-7334
▁Services	-7335
▁Hence	-7336
▁branches	-7337
▁по	-7338
▁Obs	-7339
▁butter	-7340
▁eastern	-7341
rive	-7342
ucose	-7343
▁arbit	-7344
▁trained	-7345
)|	-7346
▁df	-7347
indu	-7348
usal	-7349
doc	-7350
▁neu	-7351
▁nurs	-7352
▁Sciences	-7353
▁Mah	-7354
ideos	-7355
▁grew	-7356
▁Georg	-7357
iral	-7358
▁inhib	-7359
▁manual	-7360
▁Disease	-7361
▁indicated	-7362
▁organisms	-7363
▁BC	-7364
bles	-7365
▁doi	-7366
stone	-7367
ften	-7368
▁fell	-7369
▁Resear	-7370
▁vessels	-7371
erior	-7372
esides	-7373
ba	-7374
▁Low	-7375
idity	-7376
▁sole	-7377
▁cultiv	-7378
▁Special	-7379
▁targets	-7380
Up	-7381
▁Pot	-7382
▁Oper	-7383
rovers	-7384
▁TV	-7385
odor	-7386
▁Haw	-7387
▁Wall	-7388
▁agreed	-7389
▁subsequent	-7390
bug	-7391
▁wra	-7392
▁passage	-7393
▁trace	-7394
▁conversion	-7395
enter	-7396
rency	-7397
▁epid	-7398
▁Agricult	-7399
quest	-7400
▁Ec	-7401
Inst	-7402
▁smoke	-7403
!!	-7404
▁owner	-7405
▁careful	-7406
▁trip	-7407
▁Ocean	-7408
▁depart	-7409
▁Indians	-7410
▁descript	-7411
▁publication	-7412
▁molecular	-7413
▁Bab	-7414
olicy	-7415
Default	-7416
▁displayed	-7417
▁turning	-7418
teen	-7419
click	-7420
▁conj	-7421
▁feeding	-7422
▁employed	-7423
▁Gener	-7424
▁provider	-7425
▁scenario	-7426
eless	-7427
▁Family	-7428
pread	-7429
▁brings	-7430
PT	-7431
eenth	-7432
▁tags	-7433
▁verb	-7434
▁union	-7435
▁scroll	-7436
▁trials	-7437
sis	-7438
From	-7439
▁domin	-7440
▁AM	-7441
▁variation	-7442
▁hun	-7443
▁Sil	-7444
▁temporary	-7445
▁volcan	-7446
▁transportation	-7447
▁Process	-7448
▁Event	-7449
▁reven	-7450
▁promin	-7451
▁attributes	-7452
apse	-7453
mega	-7454
▁Ident	-7455
▁stores	-7456
▁compens	-7457
%.	-7458
GE	-7459
▁Party	-7460
heric	-7461
▁emotions	-7462
Sub	-7463
irds	-7464
▁boy	-7465
▁behaviors	-7466
▁breath	-7467
opes	-7468
▁hem	-7469
▁Year	-7470
▁perfectly	-7471
▁participate	-7472
sen	-7473
▁compounds	-7474
▁requirement	-7475
▁displ	-7476
▁fung	-7477
▁tank	-7478
▁tons	-7479
▁mild	-7480
▁Light	-7481
▁Action	-7482
▁Four	-7483
▁tick	-7484
▁align	-7485
cerning	-7486
▁launched	-7487
''	-7488
IA	-7489
▁crew	-7490
hematic	-7491
▁mm	-7492
▁proved	-7493
▁TH	-7494
▁posted	-7495
pet	-7496
▁dollars	-7497
brid	-7498
▁Fund	-7499
▁preval	-7500
▁prohib	-7501
▁recept	-7502
▁regardless	-7503
▁IV	-7504
▁Did	-7505
▁Jac	-7506
▁Scott	-7507
▁flash	-7508
▁manager	-7509
▁recognition	-7510
▁icon	-7511
▁nerve	-7512
▁particle	-7513
▁earn	-7514
▁disturb	-7515
▁nest	-7516
▁rarely	-7517
ли	-7518
etc	-7519
Count	-7520
▁teen	-7521
ultane	-7522
▁texts	-7523
▁ethnic	-7524
▁composed	-7525
▁wondering	-7526
uits	-7527
endar	-7528
▁Function	-7529
grade	-7530
▁True	-7531
reated	-7532
▁neuro	-7533
▁writes	-7534
▁criteria	-7535
itudes	-7536
▁accuracy	-7537
▁healthcare	-7538
▁Iran	-7539
▁claimed	-7540
▁rational	-7541
▁tor	-7542
riend	-7543
▁crime	-7544
▁manually	-7545
▁classical	-7546
▁integrated	-7547
Config	-7548
▁equally	-7549
iva	-7550
onents	-7551
▁conversation	-7552
std	-7553
ediatric	-7554
▁vac	-7555
▁tight	-7556
["	-7557
▁proportion	-7558
▁handling	-7559
▁finds	-7560
emia	-7561
▁pin	-7562
▁legs	-7563
▁combat	-7564
▁partner	-7565
▁printed	-7566
▁definitely	-7567
▁independence	-7568
aws	-7569
orig	-7570
▁()	-7571
google	-7572
▁Contin	-7573
▁therap	-7574
▁universal	-7575
▁preced	-7576
▁Eastern	-7577
▁mechanical	-7578
    	-7579
asters	-7580
▁Atlantic	-7581
▁experimental	-7582
apped	-7583
▁enforce	-7584
▁programm	-7585
▁Er	-7586
▁ath	-7587
▁decor	-7588
▁judge	-7589
▁bind	-7590
omatic	-7591
Control	-7592
▁theories	-7593
---	-7594
▁fra	-7595
▁Head	-7596
▁Thank	-7597
▁modify	-7598
▁criminal	-7599
▁generations	-7600
olars	-7601
▁danger	-7602
▁Revolution	-7603
ano	-7604
outs	-7605
▁Holy	-7606
▁beliefs	-7607
▁reverse	-7608
ette	-7609
▁compile	-7610
essions	-7611
▁calculated	-7612
TO	-7613
raining	-7614
idespread	-7615
orted	-7616
▁artificial	-7617
rog	-7618
▁Map	-7619
actory	-7620
▁maintaining	-7621
▁lie	-7622
▁removing	-7623
▁obviously	-7624
▁satellite	-7625
source	-7626
ategory	-7627
ecut	-7628
▁surfaces	-7629
▁department	-7630
ipse	-7631
omorph	-7632
▁checked	-7633
▁islands	-7634
gr	-7635
Load	-7636
▁Rom	-7637
ishment	-7638
▁guidance	-7639
tery	-7640
igate	-7641
asty	-7642
▁axis	-7643
▁Based	-7644
roduction	-7645
▁approved	-7646
▁Ter	-7647
▁Cell	-7648
Action	-7649
▁thorough	-7650
▁Fort	-7651
▁dental	-7652
Thread	-7653
▁spending	-7654
▁Sar	-7655
▁scholar	-7656
Not	-7657
earing	-7658
▁Ep	-7659
ounded	-7660
▁burning	-7661
gov	-7662
▁Tim	-7663
▁Several	-7664
▁assumed	-7665
▁intellectual	-7666
▁Nut	-7667
▁Having	-7668
▁Victor	-7669
▁buffer	-7670
▁politics	-7671
▁holid	-7672
▁pairs	-7673
▁phrase	-7674
▁encourag	-7675
}$.	-7676
azine	-7677
▁fiber	-7678
▁fabric	-7679
▁kernel	-7680
▁uncertain	-7681
ui	-7682
dir	-7683
bing	-7684
ktop	-7685
▁significance	-7686
▁contamin	-7687
Ent	-7688
▁tutorial	-7689
▁ongoing	-7690
▁psychological	-7691
▁EU	-7692
ressive	-7693
▁repair	-7694
▁habits	-7695
▁Kingdom	-7696
▁rocks	-7697
▁designs	-7698
▁pointer	-7699
▁separated	-7700
▁discrimination	-7701
▁kidney	-7702
▁carb	-7703
▁epis	-7704
▁Coast	-7705
▁deriv	-7706
bur	-7707
▁Moon	-7708
▁boys	-7709
▁Brazil	-7710
cies	-7711
cyclop	-7712
▁breathing	-7713
▁byte	-7714
▁cup	-7715
▁sizes	-7716
▁bio	-7717
ittle	-7718
▁lifestyle	-7719
▁marks	-7720
▁observe	-7721
▁fashion	-7722
▁stronger	-7723
▁execution	-7724
system	-7725
▁facing	-7726
▁Reading	-7727
▁recover	-7728
archy	-7729
▁processed	-7730
pdf	-7731
ithub	-7732
▁fails	-7733
▁symbols	-7734
▁principal	-7735
Net	-7736
▁falls	-7737
▁competition	-7738
osion	-7739
▁Resources	-7740
ima	-7741
▁debt	-7742
▁mail	-7743
▁arrest	-7744
▁asthma	-7745
▁loaded	-7746
▁applies	-7747
ols	-7748
▁reduces	-7749
▁everyday	-7750
▁constantly	-7751
▁smoking	-7752
▁functionality	-7753
Gen	-7754
▁Vit	-7755
button	-7756
aining	-7757
uality	-7758
▁initially	-7759
▁Researchers	-7760
([	-7761
▁Secret	-7762
▁converted	-7763
▁é	-7764
▁Az	-7765
gener	-7766
▁rivers	-7767
▁Gard	-7768
▁©	-7769
▁Hor	-7770
ounce	-7771
return	-7772
▁Array	-7773
▁codes	-7774
▁beings	-7775
▁husband	-7776
iah	-7777
brew	-7778
▁cats	-7779
▁od	-7780
▁confirmed	-7781
▁maintained	-7782
▁ped	-7783
▁Rest	-7784
▁Tom	-7785
server	-7786
▁Ur	-7787
▁Jeff	-7788
liest	-7789
▁coastal	-7790
▁Lead	-7791
▁outdo	-7792
▁shock	-7793
▁cholesterol	-7794
▁ampl	-7795
IST	-7796
▁logical	-7797
isdom	-7798
▁sending	-7799
sim	-7800
atial	-7801
imation	-7802
▁thy	-7803
▁Force	-7804
▁veter	-7805
▁advantages	-7806
nat	-7807
▁partial	-7808
▁waiting	-7809
▁Dru	-7810
▁assembly	-7811
$-	-7812
KE	-7813
▁nitrogen	-7814
▁clock	-7815
▁exceed	-7816
▁applying	-7817
FC	-7818
▁Sup	-7819
▁guard	-7820
▁Ama	-7821
▁agents	-7822
▁ES	-7823
▁SD	-7824
▁Number	-7825
▁Carolina	-7826
▁д	-7827
vate	-7828
▁coc	-7829
▁favorite	-7830
▁binding	-7831
▁painting	-7832
adder	-7833
▁destruction	-7834
▁legislation	-7835
▁neur	-7836
▁Section	-7837
▁historic	-7838
▁greenhouse	-7839
▁lake	-7840
Client	-7841
ella	-7842
▁newly	-7843
param	-7844
▁defense	-7845
▁shouldn	-7846
▁AI	-7847
▁phenomenon	-7848
FA	-7849
▁damaged	-7850
▁carrying	-7851
span	-7852
efined	-7853
▁Princ	-7854
▁enabled	-7855
etics	-7856
ureau	-7857
▁mood	-7858
▁Asian	-7859
▁Indeed	-7860
depend	-7861
▁Standard	-7862
▁Hill	-7863
▁Teac	-7864
▁iter	-7865
▁Kar	-7866
▁roles	-7867
▁appeal	-7868
▁executed	-7869
▁controvers	-7870
▁odd	-7871
▁evil	-7872
▁rice	-7873
▁AT	-7874
▁integral	-7875
▁ye	-7876
elesc	-7877
▁Zeal	-7878
▁surprising	-7879
rot	-7880
▁Columbia	-7881
▁CA	-7882
▁substit	-7883
System	-7884
▁strange	-7885
▁honor	-7886
onal	-7887
▁unusual	-7888
▁widespread	-7889
case	-7890
▁advert	-7891
▁neighborhood	-7892
URL	-7893
plex	-7894
aka	-7895
inson	-7896
▁Recent	-7897
▁captured	-7898
▁computing	-7899
Activity	-7900
▁diagnosed	-7901
Rep	-7902
▁Mel	-7903
▁Analysis	-7904
▁checking	-7905
edu	-7906
hyd	-7907
▁identical	-7908
▁agent	-7909
▁blind	-7910
></	-7911
▁pup	-7912
▁Bill	-7913
▁abandon	-7914
▁Scot	-7915
▁Works	-7916
▁finish	-7917
ango	-7918
▁detection	-7919
▁exercises	-7920
supp	-7921
▁van	-7922
▁Sund	-7923
▁plenty	-7924
▁victims	-7925
▁swim	-7926
▁membran	-7927
▁Online	-7928
▁shapes	-7929
gex	-7930
▁serving	-7931
eness	-7932
▁defend	-7933
▁Less	-7934
▁adoles	-7935
▁Plant	-7936
partial	-7937
▁pregnant	-7938
▁Dar	-7939
Create	-7940
▁Father	-7941
imensional	-7942
▁depos	-7943
jar	-7944
▁Media	-7945
▁incred	-7946
▁Christmas	-7947
><	-7948
▁compat	-7949
default	-7950
▁cash	-7951
▁worst	-7952
plant	-7953
▁sought	-7954
info	-7955
▁boot	-7956
▁Value	-7957
allow	-7958
▁Young	-7959
▁Oxford	-7960
▁fellow	-7961
▁obesity	-7962
▁planned	-7963
▁moisture	-7964
▁inequ	-7965
▁chick	-7966
▁glucose	-7967
▁spectrum	-7968
ett	-7969
oir	-7970
▁lung	-7971
ogether	-7972
]{	-7973
fold	-7974
▁unw	-7975
ashes	-7976
▁stre	-7977
▁Altern	-7978
▁Whether	-7979
▁Following	-7980
▁pounds	-7981
▁reward	-7982
▁diameter	-7983
FO	-7984
▁DC	-7985
▁implications	-7986
▁CPU	-7987
LA	-7988
▁NO	-7989
▁adm	-7990
ading	-7991
▁markets	-7992
▁facility	-7993
Go	-7994
▁flows	-7995
▁simultane	-7996
names	-7997
▁styles	-7998
▁Community	-7999
Comm	-8000
▁Naz	-8001
▁disaster	-8002
▁suggestions	-8003
▁participation	-8004
alm	-8005
▁Modern	-8006
▁isolated	-8007
▁Tre	-8008
ivered	-8009
▁terror	-8010
▁undert	-8011
operation	-8012
▁luck	-8013
▁meth	-8014
▁peak	-8015
▁heating	-8016
reek	-8017
▁pix	-8018
▁harder	-8019
▁*/	-8020
▁disput	-8021
▁addresses	-8022
How	-8023
reshold	-8024
▁banks	-8025
▁poison	-8026
▁stability	-8027
gence	-8028
▁Remember	-8029
▁packages	-8030
▁cir	-8031
▁integration	-8032
ORD	-8033
▁nerv	-8034
non	-8035
▁flying	-8036
▁relief	-8037
▁seeking	-8038
▁bringing	-8039
▁announced	-8040
▁challenging	-8041
matrix	-8042
▁deeper	-8043
oz	-8044
theta	-8045
▁meal	-8046
▁printing	-8047
VER	-8048
orses	-8049
▁paragraph	-8050
▁Ven	-8051
project	-8052
▁restric	-8053
▁confused	-8054
sk	-8055
▁phosph	-8056
▁Zealand	-8057
▁industries	-8058
Pr	-8059
Te	-8060
opath	-8061
duction	-8062
ак	-8063
oured	-8064
▁token	-8065
▁copper	-8066
etary	-8067
▁centers	-8068
avery	-8069
▁calories	-8070
▁apparently	-8071
Result	-8072
lishing	-8073
▁puzz	-8074
▁keeps	-8075
igan	-8076
▁grad	-8077
▁dischar	-8078
▁summary	-8079
"></	-8080
▁writers	-8081
Base	-8082
https	-8083
▁Maybe	-8084
▁defect	-8085
ritis	-8086
spe	-8087
employ	-8088
▁Prop	-8089
▁rend	-8090
▁tube	-8091
▁gained	-8092
▁granted	-8093
▁stopped	-8094
ometric	-8095
▁structural	-8096
▁elsewhere	-8097
ais	-8098
▁viruses	-8099
▁Director	-8100
PC	-8101
ва	-8102
▁CS	-8103
find	-8104
haust	-8105
▁conference	-8106
eli	-8107
angular	-8108
iodiversity	-8109
TH	-8110
▁paint	-8111
theless	-8112
▁archae	-8113
▁detected	-8114
▁constructor	-8115
▁ok	-8116
▁babies	-8117
▁customer	-8118
rection	-8119
▁resident	-8120
▁pipe	-8121
aska	-8122
▁whenever	-8123
▁concerning	-8124
oples	-8125
format	-8126
▁polar	-8127
abulary	-8128
emb	-8129
▁biology	-8130
▁insulin	-8131
▁tissues	-8132
▁None	-8133
iber	-8134
▁adequate	-8135
▁preferred	-8136
aus	-8137
erty	-8138
▁performing	-8139
after	-8140
▁sales	-8141
▁caught	-8142
▁videos	-8143
▁copyright	-8144
▁recommendations	-8145
▁fed	-8146
▁officers	-8147
Sp	-8148
▁Phot	-8149
▁lens	-8150
▁blank	-8151
▁returning	-8152
▁differently	-8153
VC	-8154
effect	-8155
▁argue	-8156
▁sched	-8157
▁suspect	-8158
▁subt	-8159
making	-8160
apache	-8161
oln	-8162
▁resolve	-8163
▁dict	-8164
▁males	-8165
▁elected	-8166
▁intense	-8167
▁substances	-8168
▁clot	-8169
▁Grand	-8170
▁outbre	-8171
▁serves	-8172
▁algorithms	-8173
▁Calc	-8174
▁utility	-8175
▁analys	-8176
▁fever	-8177
▁observation	-8178
afe	-8179
ston	-8180
ulty	-8181
ctive	-8182
▁installation	-8183
▁crow	-8184
▁Organization	-8185
▁beauty	-8186
▁priority	-8187
▁visitors	-8188
anger	-8189
night	-8190
range	-8191
▁teams	-8192
▁Pet	-8193
▁JSON	-8194
icted	-8195
▁cache	-8196
Rec	-8197
amil	-8198
▁hur	-8199
▁Korea	-8200
▁remind	-8201
▁radical	-8202
)/	-8203
ani	-8204
▁plugin	-8205
▁proven	-8206
Reg	-8207
context	-8208
▁notion	-8209
▁removal	-8210
bean	-8211
olving	-8212
efficient	-8213
▁ingredients	-8214
ailability	-8215
)}	-8216
opic	-8217
▁galax	-8218
▁orders	-8219
rous	-8220
▁informed	-8221
▁partition	-8222
▁Scientists	-8223
▁fu	-8224
etts	-8225
▁mold	-8226
▁drain	-8227
you	-8228
▁measuring	-8229
▁desert	-8230
▁disp	-8231
ryption	-8232
▁Agency	-8233
▁District	-8234
▁preventing	-8235
▁contemporary	-8236
%,	-8237
scrib	-8238
▁cycl	-8239
▁dent	-8240
Filter	-8241
▁females	-8242
▁considerable	-8243
▁PDF	-8244
Handler	-8245
ção	-8246
green	-8247
sigma	-8248
▁organs	-8249
▁characteristic	-8250
▁cav	-8251
ogram	-8252
aa	-8253
Input	-8254
▁Circ	-8255
▁Level	-8256
▁symmet	-8257
▁chest	-8258
▁engaged	-8259
▁fraction	-8260
▁CH	-8261
▁Parent	-8262
asy	-8263
aired	-8264
false	-8265
▁Card	-8266
********	-8267
displaystyle	-8268
roc	-8269
▁ru	-8270
oston	-8271
{{	-8272
itual	-8273
▁magic	-8274
▁quarter	-8275
▁coverage	-8276
Http	-8277
▁Pen	-8278
▁preparation	-8279
ohyd	-8280
▁por	-8281
▁holes	-8282
▁sitting	-8283
iary	-8284
irus	-8285
▁furn	-8286
Number	-8287
▁Could	-8288
▁laid	-8289
▁abilities	-8290
▁instant	-8291
▁matches	-8292
▁thermal	-8293
▁loved	-8294
ami	-8295
vals	-8296
▁brand	-8297
▁Indust	-8298
▁jQuery	-8299
▁delivered	-8300
▁CSS	-8301
▁sudo	-8302
▁pharm	-8303
▁resid	-8304
foot	-8305
vard	-8306
iratory	-8307
▁submit	-8308
▁np	-8309
ograp	-8310
▁implies	-8311
▁ordinary	-8312
▁microb	-8313
▁tempor	-8314
▁Put	-8315
ruption	-8316
▁Studio	-8317
acent	-8318
Column	-8319
▁decay	-8320
▁expanded	-8321
▁schedule	-8322
▁offering	-8323
▁traditions	-8324
yal	-8325
▁SO	-8326
▁Coll	-8327
▁Swed	-8328
▁serial	-8329
▁Christians	-8330
▁Cross	-8331
▁Mathemat	-8332
▁dimensions	-8333
▁poem	-8334
▁deleg	-8335
▁boundary	-8336
▁ignore	-8337
▁reveal	-8338
▁television	-8339
Ab	-8340
####	-8341
▁aims	-8342
ри	-8343
har	-8344
▁Py	-8345
▁fer	-8346
▁clients	-8347
▁Field	-8348
▁lights	-8349
▁privile	-8350
Application	-8351
▁mountains	-8352
▁operators	-8353
ao	-8354
▁dose	-8355
▁overl	-8356
▁eliminate	-8357
omega	-8358
▁breeding	-8359
▁MA	-8360
irth	-8361
▁emphasis	-8362
▁investigation	-8363
ABLE	-8364
oven	-8365
ommod	-8366
▁Sand	-8367
idation	-8368
▁driven	-8369
▁saving	-8370
▁span	-8371
▁Incre	-8372
IDS	-8373
▁gradually	-8374
▁introduce	-8375
ester	-8376
▁draft	-8377
▁musical	-8378
▁varieties	-8379
ль	-8380
world	-8381
vation	-8382
▁telling	-8383
▁override	-8384
▁turb	-8385
▁viewed	-8386
▁encouraged	-8387
▁hypothesis	-8388
▁heavily	-8389
▁velocity	-8390
nee	-8391
▁pand	-8392
▁confident	-8393
▁creatures	-8394
▁influenced	-8395
lang	-8396
▁heads	-8397
▁engines	-8398
▁optimal	-8399
▁effectiveness	-8400
▁sampl	-8401
▁directed	-8402
▁minerals	-8403
anes	-8404
heimer	-8405
▁grows	-8406
▁metric	-8407
▁gravity	-8408
aping	-8409
health	-8410
▁duration	-8411
▁consideration	-8412
▁replacement	-8413
rape	-8414
ishop	-8415
clipse	-8416
▁mining	-8417
▁absence	-8418
▁superior	-8419
dep	-8420
Listener	-8421
▁artists	-8422
▁propag	-8423
▁asc	-8424
rolled	-8425
▁dimension	-8426
▁collaboration	-8427
fil	-8428
▁cab	-8429
space	-8430
▁Forest	-8431
gressive	-8432
▁lymph	-8433
▁anyway	-8434
.).	-8435
▁rhyth	-8436
▁examined	-8437
beta	-8438
▁cham	-8439
icular	-8440
▁mi	-8441
▁presents	-8442
race	-8443
▁exit	-8444
▁stead	-8445
amine	-8446
▁multip	-8447
▁nervous	-8448
▁intensity	-8449
}_	-8450
awn	-8451
olt	-8452
▁nose	-8453
.'	-8454
▁edges	-8455
rip	-8456
▁Apple	-8457
▁Enter	-8458
▁demands	-8459
▁solving	-8460
▁concluded	-8461
▁▁▁▁▁▁▁▁▁▁▁▁▁▁▁	-8462
▁mir	-8463
▁Answ	-8464
▁mapping	-8465
▁substantial	-8466
DS	-8467
connect	-8468
▁movie	-8469
▁mosquit	-8470
▁certificate	-8471
EX	-8472
▁jur	-8473
▁identification	-8474
"),	-8475
▁Being	-8476
▁Local	-8477
▁uncom	-8478
▁wheel	-8479
▁minimal	-8480
gment	-8481
asts	-8482
rical	-8483
▁bomb	-8484
▁м	-8485
▁fo	-8486
ady	-8487
rox	-8488
▁AC	-8489
author	-8490
perties	-8491
▁strike	-8492
EL	-8493
hy	-8494
}$,	-8495
vania	-8496
▁threats	-8497
▁Ut	-8498
American	-8499
▁physician	-8500
urrent	-8501
▁attitude	-8502
▁insight	-8503
uity	-8504
ansas	-8505
▁Move	-8506
▁interval	-8507
▁interactive	-8508
▁DO	-8509
▁bare	-8510
)]	-8511
▁crypt	-8512
▁Edward	-8513
okes	-8514
▁Cam	-8515
▁illegal	-8516
▁},	-8517
▁Unlike	-8518
buntu	-8519
▁Dutch	-8520
▁Small	-8521
▁compound	-8522
Bl	-8523
vi	-8524
▁Music	-8525
▁metabol	-8526
▁earliest	-8527
▁Similarly	-8528
▁Ask	-8529
▁giant	-8530
cut	-8531
▁Liter	-8532
▁faced	-8533
▁Centre	-8534
▁refere	-8535
▁transmit	-8536
▁overw	-8537
▁covering	-8538
▁reporting	-8539
^\	-8540
▁Fig	-8541
rooms	-8542
▁Still	-8543
BM	-8544
det	-8545
▁GM	-8546
enger	-8547
▁myst	-8548
▁upload	-8549
specific	-8550
?)	-8551
po	-8552
▁Due	-8553
▁Systems	-8554
▁mineral	-8555
▁preserve	-8556
▁contribution	-8557
▁Administration	-8558
▁communications	-8559
rey	-8560
nomial	-8561
▁worksh	-8562
▁Conservation	-8563
▁${\	-8564
▁differ	-8565
▁consume	-8566
▁addressed	-8567
Sty	-8568
▁Lo	-8569
▁datas	-8570
▁repeat	-8571
▁excessive	-8572
anned	-8573
▁visited	-8574
▁hack	-8575
encing	-8576
ulatory	-8577
▁flexible	-8578
▁absolutely	-8579
▁examination	-8580
▁alive	-8581
▁digest	-8582
▁regulation	-8583
▁transaction	-8584
search	-8585
▁tract	-8586
BA	-8587
VID	-8588
adding	-8589
▁modules	-8590
show	-8591
▁falling	-8592
▁Minister	-8593
▁renewable	-8594
IO	-8595
big	-8596
itches	-8597
airy	-8598
▁Show	-8599
▁bath	-8600
▁drought	-8601
▁TO	-8602
chen	-8603
uffer	-8604
security	-8605
▁amazing	-8606
▁listening	-8607
incoln	-8608
▁slavery	-8609
▁Building	-8610
▁Engineering	-8611
▁Core	-8612
▁exhaust	-8613
asm	-8614
vider	-8615
▁Mach	-8616
▁slave	-8617
▁Hum	-8618
▁planets	-8619
▁accompan	-8620
▁difficulties	-8621
▁characterized	-8622
(-	-8623
▁comprom	-8624
racle	-8625
Start	-8626
▁entries	-8627
▁theorem	-8628
column	-8629
▁checks	-8630
FI	-8631
▁Ott	-8632
onymous	-8633
▁hazard	-8634
▁Cambridge	-8635
▁occurring	-8636
Click	-8637
▁girl	-8638
▁Later	-8639
null	-8640
▁Turn	-8641
▁equality	-8642
▁scholars	-8643
▁partnership	-8644
^{\	-8645
▁paths	-8646
▁shoot	-8647
▁landing	-8648
▁parad	-8649
▁charged	-8650
▁somehow	-8651
▁opposition	-8652
hat	-8653
nov	-8654
aren	-8655
ilon	-8656
▁aged	-8657
erman	-8658
itarian	-8659
iological	-8660
▁clothing	-8661
▁directions	-8662
го	-8663
eor	-8664
▁suffered	-8665
▁settlement	-8666
▁sunlight	-8667
▁Bu	-8668
▁sharp	-8669
▁reaching	-8670
▁expressions	-8671
▁lowest	-8672
▁Supreme	-8673
▁repository	-8674
▁bless	-8675
▁restore	-8676
▁Protection	-8677
▁assignment	-8678
▁Amazon	-8679
▁Search	-8680
▁totally	-8681
▁inspired	-8682
▁unlikely	-8683
Dis	-8684
irms	-8685
prot	-8686
▁Ide	-8687
▁USB	-8688
▁advis	-8689
▁abnormal	-8690
▁Rub	-8691
▁cas	-8692
▁compos	-8693
ercury	-8694
▁margin	-8695
▁accommod	-8696
▁Dictionary	-8697
uum	-8698
▁hide	-8699
▁comfortable	-8700
hot	-8701
▁dense	-8702
▁variations	-8703
syl	-8704
▁searching	-8705
.:	-8706
▁oldest	-8707
"?	-8708
▁acceptable	-8709
▁quantity	-8710
▁realized	-8711
oli	-8712
ceive	-8713
▁fract	-8714
Override	-8715
▁healing	-8716
▁manifest	-8717
▁migration	-8718
▁accomplish	-8719
▁perception	-8720
▁arts	-8721
tag	-8722
▁Ol	-8723
▁Path	-8724
▁taxes	-8725
▁Norm	-8726
▁scar	-8727
public	-8728
▁advent	-8729
▁thereby	-8730
▁Examples	-8731
▁entering	-8732
ht	-8733
ventions	-8734
▁scientist	-8735
asma	-8736
▁scr	-8737
thritis	-8738
roud	-8739
▁Mic	-8740
▁thr	-8741
}]	-8742
When	-8743
sell	-8744
icing	-8745
isible	-8746
▁roads	-8747
▁Books	-8748
▁chose	-8749
▁pilot	-8750
▁temple	-8751
▁OK	-8752
istant	-8753
▁Avoid	-8754
|\	-8755
asant	-8756
▁fires	-8757
ements	-8758
▁overcome	-8759
▁alarm	-8760
▁enables	-8761
▁Sir	-8762
▁tip	-8763
▁hier	-8764
Factory	-8765
ometers	-8766
▁mixture	-8767
▁regarded	-8768
NG	-8769
▁bag	-8770
▁Kenn	-8771
oga	-8772
▁Pur	-8773
▁neutral	-8774
annels	-8775
ilation	-8776
acco	-8777
▁orb	-8778
achus	-8779
▁Road	-8780
Window	-8781
▁license	-8782
ifice	-8783
direct	-8784
▁panels	-8785
▁magnitude	-8786
▁{\	-8787
▁apps	-8788
▁stations	-8789
seud	-8790
▁dism	-8791
▁quote	-8792
▁Import	-8793
▁slaves	-8794
agen	-8795
mann	-8796
▁entity	-8797
▁senior	-8798
expected	-8799
una	-8800
anted	-8801
▁Print	-8802
lete	-8803
oked	-8804
ruit	-8805
▁para	-8806
▁acute	-8807
▁puts	-8808
▁Write	-8809
▁versus	-8810
▁incident	-8811
▁definitions	-8812
aya	-8813
▁flour	-8814
▁ms	-8815
▁XML	-8816
▁enorm	-8817
▁irrit	-8818
▁artist	-8819
▁conserv	-8820
▁shorter	-8821
▁mortality	-8822
plug	-8823
model	-8824
ieval	-8825
elfare	-8826
▁Boston	-8827
▁integr	-8828
▁combine	-8829
>(	-8830
▁finger	-8831
▁promise	-8832
▁servers	-8833
HS	-8834
iana	-8835
asive	-8836
▁breaks	-8837
▁precisely	-8838
vial	-8839
▁IT	-8840
▁Polit	-8841
▁Stack	-8842
▁contributed	-8843
▁dropped	-8844
inf	-8845
▁segment	-8846
▁lifetime	-8847
▁Order	-8848
▁passes	-8849
▁Johnson	-8850
iner	-8851
ali	-8852
▁Ken	-8853
▁tom	-8854
arters	-8855
▁Heart	-8856
▁fishing	-8857
cyclopedia	-8858
▁horizontal	-8859
nab	-8860
site	-8861
▁paras	-8862
▁losses	-8863
▁ritual	-8864
▁Lincoln	-8865
▁horses	-8866
▁profit	-8867
▁Pennsyl	-8868
▁microsc	-8869
▁Imm	-8870
▁Poly	-8871
ocolate	-8872
▁chap	-8873
▁cooking	-8874
▁appreciated	-8875
▁db	-8876
▁tens	-8877
▁copies	-8878
▁Product	-8879
▁commission	-8880
sv	-8881
▁£	-8882
▁Alz	-8883
▁Return	-8884
▁breaking	-8885
oric	-8886
▁Help	-8887
▁Quest	-8888
▁decreased	-8889
pol	-8890
fast	-8891
filter	-8892
▁Santa	-8893
▁cable	-8894
▁focuses	-8895
▁TR	-8896
eras	-8897
▁wing	-8898
▁flower	-8899
clusions	-8900
itals	-8901
▁Base	-8902
▁beat	-8903
▁evolved	-8904
▁Pak	-8905
▁Solar	-8906
▁Treatment	-8907
▁rose	-8908
▁courts	-8909
▁incorrect	-8910
▁Prevention	-8911
▁reflection	-8912
▁UT	-8913
iler	-8914
▁disrupt	-8915
▁prominent	-8916
▁ram	-8917
ricts	-8918
▁screening	-8919
opl	-8920
▁Blue	-8921
▁breed	-8922
▁faces	-8923
▁literally	-8924
▁developers	-8925
urable	-8926
▁Below	-8927
inition	-8928
)$.	-8929
▁Queen	-8930
▁Script	-8931
▁Lim	-8932
▁assets	-8933
▁>>	-8934
mond	-8935
omer	-8936
▁Way	-8937
▁sees	-8938
▁labels	-8939
▁generic	-8940
▁documented	-8941
▁asp	-8942
▁func	-8943
▁um	-8944
quir	-8945
▁marg	-8946
▁beans	-8947
▁owned	-8948
▁Hebrew	-8949
▁bees	-8950
▁embry	-8951
▁loading	-8952
▁treating	-8953
▁weakness	-8954
rl	-8955
▁Major	-8956
agnetic	-8957
▁degrad	-8958
▁killing	-8959
▁EX	-8960
▁cub	-8961
▁fest	-8962
▁worship	-8963
▁Material	-8964
▁sequences	-8965
!)	-8966
▁noun	-8967
advant	-8968
▁Different	-8969
exe	-8970
▁Ly	-8971
▁quiet	-8972
Builder	-8973
▁Arctic	-8974
vit	-8975
▁cattle	-8976
▁sensitivity	-8977
▁Rh	-8978
▁ton	-8979
▁cooling	-8980
▁Application	-8981
▁destination	-8982
cap	-8983
cor	-8984
obile	-8985
reens	-8986
▁cort	-8987
▁smell	-8988
▁Business	-8989
block	-8990
cking	-8991
▁honey	-8992
ando	-8993
▁innovation	-8994
elve	-8995
isted	-8996
dri	-8997
roat	-8998
zone	-8999
abeth	-9000
ioxid	-9001
▁encounter	-9002
▁на	-9003
close	-9004
▁farming	-9005
▁tropical	-9006
▁sessions	-9007
keys	-9008
▁hybrid	-9009
ottom	-9010
▁Fact	-9011
result	-9012
▁infant	-9013
▁dictionary	-9014
Page	-9015
berry	-9016
access	-9017
▁debug	-9018
has	-9019
▁bash	-9020
▁inval	-9021
▁boundaries	-9022
ostic	-9023
▁boat	-9024
▁geometry	-9025
▁intention	-9026
%%	-9027
▁Battle	-9028
▁safely	-9029
ovascular	-9030
▁creature	-9031
[{	-9032
▁Far	-9033
▁dance	-9034
▁feels	-9035
▁Safety	-9036
iture	-9037
▁divide	-9038
▁mur	-9039
ogenic	-9040
▁acting	-9041
▁spoken	-9042
▁Custom	-9043
▁choosing	-9044
▁affecting	-9045
▁CR	-9046
▁maxim	-9047
▁silver	-9048
▁province	-9049
[[	-9050
circ	-9051
▁acres	-9052
▁learners	-9053
DR	-9054
words	-9055
▁Christianity	-9056
??	-9057
ati	-9058
▁pestic	-9059
▁Alzheimer	-9060
▁sentences	-9061
▁identifying	-9062
▁improvements	-9063
Format	-9064
▁morph	-9065
▁analyze	-9066
▁providers	-9067
▁experiencing	-9068
▁NE	-9069
▁cluster	-9070
▁PS	-9071
▁Within	-9072
achusetts	-9073
izers	-9074
▁gases	-9075
▁laser	-9076
▁WHERE	-9077
▁ending	-9078
▁Na	-9079
ulpt	-9080
▁HTTP	-9081
▁club	-9082
▁html	-9083
▁reads	-9084
▁Policy	-9085
apor	-9086
▁matching	-9087
▁CE	-9088
Write	-9089
clear	-9090
▁Crit	-9091
▁hall	-9092
▁seat	-9093
▁peoples	-9094
ador	-9095
oving	-9096
▁sport	-9097
▁threshold	-9098
abs	-9099
▁Ak	-9100
▁Gar	-9101
▁Eliz	-9102
▁batt	-9103
▁login	-9104
▁everywhere	-9105
▁Has	-9106
roups	-9107
▁chlor	-9108
▁Sunday	-9109
▁offset	-9110
▁scores	-9111
sem	-9112
▁wheat	-9113
aved	-9114
quad	-9115
event	-9116
▁Term	-9117
havior	-9118
▁Would	-9119
dimensional	-9120
▁complications	-9121
unicip	-9122
▁Often	-9123
▁registered	-9124
▁Pennsylvania	-9125
ни	-9126
▁FA	-9127
amins	-9128
▁engineers	-9129
▁signature	-9130
~~	-9131
email	-9132
▁compact	-9133
▁investigate	-9134
num	-9135
▁radius	-9136
▁weapon	-9137
ja	-9138
bel	-9139
▁Ira	-9140
▁lob	-9141
di	-9142
▁les	-9143
▁literacy	-9144
▁Sep	-9145
▁dys	-9146
append	-9147
▁penal	-9148
@"	-9149
▁spl	-9150
▁Hope	-9151
▁losing	-9152
те	-9153
▁cleaning	-9154
══	-9155
','	-9156
▁Integ	-9157
framework	-9158
▁physically	-9159
ochem	-9160
▁cheap	-9161
▁ceremon	-9162
▁generating	-9163
▁manufacturers	-9164
athered	-9165
▁Interest	-9166
▁overwhel	-9167
▁polynomial	-9168
nu	-9169
dig	-9170
▁PR	-9171
igue	-9172
▁Mond	-9173
▁moderate	-9174
▁Georgia	-9175
▁confusion	-9176
▁protecting	-9177
zer	-9178
request	-9179
▁constraints	-9180
amps	-9181
▁forming	-9182
▁objectives	-9183
even	-9184
jango	-9185
▁keyboard	-9186
▁Best	-9187
▁imaging	-9188
▁Anc	-9189
▁Win	-9190
▁biom	-9191
▁tumor	-9192
ESS	-9193
tons	-9194
▁worker	-9195
▁Currently	-9196
▁representing	-9197
/*	-9198
▁+=	-9199
adel	-9200
iously	-9201
▁vocabulary	-9202
▁Frid	-9203
▁Digital	-9204
▁Copyright	-9205
yes	-9206
▁${	-9207
▁Capt	-9208
▁Gulf	-9209
▁intest	-9210
Component	-9211
▁candidate	-9212
▁precision	-9213
▁gut	-9214
▁hook	-9215
▁narrative	-9216
▁duty	-9217
▁acquired	-9218
Connection	-9219
▁Francisco	-9220
▁reputation	-9221
mn	-9222
dec	-9223
ptic	-9224
▁assemb	-9225
▁Michigan	-9226
▁threatened	-9227
ifact	-9228
▁evening	-9229
▁democracy	-9230
JS	-9231
Ref	-9232
▁Ohio	-9233
kind	-9234
▁gly	-9235
▁argued	-9236
ogs	-9237
▁CT	-9238
fire	-9239
emies	-9240
▁Jacob	-9241
▁Islamic	-9242
▁wine	-9243
▁wisdom	-9244
▁Li	-9245
▁eru	-9246
▁fatty	-9247
▁inhabit	-9248
▁reserved	-9249
One	-9250
rene	-9251
otton	-9252
▁Massachusetts	-9253
ASE	-9254
ouds	-9255
Frame	-9256
▁..	-9257
▁Lee	-9258
prise	-9259
▁Impro	-9260
▁Bulgar	-9261
▁routes	-9262
▁strain	-9263
▁chances	-9264
▁arbitrary	-9265
hus	-9266
amination	-9267
▁assumption	-9268
▁ft	-9269
▁Short	-9270
▁Support	-9271
▁strengthen	-9272
▁Little	-9273
▁supplements	-9274
rho	-9275
angered	-9276
▁newspaper	-9277
▁antibiotics	-9278
▁restrictions	-9279
oa	-9280
▁Wal	-9281
valid	-9282
▁athlet	-9283
CM	-9284
▁Full	-9285
forward	-9286
viously	-9287
otherapy	-9288
▁believes	-9289
olk	-9290
▁pit	-9291
▁loose	-9292
mal	-9293
▁Real	-9294
▁stuck	-9295
iations	-9296
▁solved	-9297
▁suscept	-9298
▁concentrations	-9299
ieve	-9300
▁Rock	-9301
▁trends	-9302
▁carbohyd	-9303
▁determining	-9304
▁calculations	-9305
▁possibilities	-9306
HD	-9307
▁Ve	-9308
▁hint	-9309
▁meta	-9310
▁coordinates	-9311
Ps	-9312
iat	-9313
▁bin	-9314
▁implementing	-9315
dat	-9316
outer	-9317
module	-9318
▁Parliament	-9319
▁grain	-9320
▁capabilities	-9321
Param	-9322
▁classic	-9323
▁existed	-9324
▁programme	-9325
▁guarantee	-9326
TER	-9327
oute	-9328
number	-9329
best	-9330
▁brush	-9331
▁dietary	-9332
▁researcher	-9333
dict	-9334
▁searc	-9335
▁towns	-9336
century	-9337
▁grounds	-9338
▁threads	-9339
▁earthquake	-9340
▁locally	-9341
WS	-9342
uming	-9343
client	-9344
▁elder	-9345
▁frust	-9346
▁retrie	-9347
▁fing	-9348
zes	-9349
▁Imp	-9350
▁sad	-9351
▁tou	-9352
▁fragment	-9353
}=	-9354
Style	-9355
eting	-9356
▁Conference	-9357
▁– 	-9358
▁Area	-9359
▁hosp	-9360
▁resc	-9361
alities	-9362
▁Vitamin	-9363
▁initiative	-9364
ATH	-9365
rin	-9366
▁RNA	-9367
▁Prom	-9368
▁functioning	-9369
ourse	-9370
▁Invest	-9371
▁perceived	-9372
▁mothers	-9373
▁websites	-9374
▁Convention	-9375
▁reaches	-9376
▁screens	-9377
▁humanity	-9378
Grid	-9379
▁households	-9380
▁vot	-9381
▁Portug	-9382
▁contrad	-9383
▁ease	-9384
▁borrow	-9385
▁dramatic	-9386
▁bund	-9387
▁Survey	-9388
util	-9389
▁dot	-9390
usalem	-9391
imm	-9392
▁buried	-9393
▁ethical	-9394
▁consumed	-9395
▁interior	-9396
▁exploration	-9397
▁Ari	-9398
target	-9399
develop	-9400
▁rotation	-9401
rightarrow	-9402
▁expectations	-9403
.*	-9404
▁raising	-9405
▁distinguish	-9406
▁contributions	-9407
som	-9408
▁royal	-9409
contain	-9410
▁Assess	-9411
▁aggreg	-9412
iano	-9413
neys	-9414
▁sail	-9415
▁hodor	-9416
▁Theory	-9417
ographical	-9418
▁appointed	-9419
▁seriously	-9420
▁commitment	-9421
▁respiratory	-9422
awa	-9423
▁apt	-9424
▁Division	-9425
▁Stan	-9426
▁Place	-9427
▁limitations	-9428
install	-9429
▁orth	-9430
▁availability	-9431
▁transformation	-9432
ны	-9433
▁fisher	-9434
Row	-9435
▁wonderful	-9436
png	-9437
▁mask	-9438
abling	-9439
urches	-9440
▁admin	-9441
▁atoms	-9442
▁opens	-9443
▁descend	-9444
▁Pakistan	-9445
▁Fall	-9446
▁Introduction	-9447
▁Los	-9448
istent	-9449
▁Rather	-9450
Template	-9451
axis	-9452
▁pond	-9453
▁suit	-9454
▁minds	-9455
▁oblig	-9456
img	-9457
▁cust	-9458
GL	-9459
rapeut	-9460
▁sensor	-9461
▁redirect	-9462
▁electrons	-9463
len	-9464
▁wider	-9465
▁Spirit	-9466
▁SP	-9467
bage	-9468
▁sou	-9469
▁gods	-9470
contin	-9471
▁Third	-9472
Instance	-9473
▁settled	-9474
▁managing	-9475
_\	-9476
files	-9477
▁irre	-9478
▁permit	-9479
▁virtually	-9480
▁orientation	-9481
▁statistical	-9482
▁adapted	-9483
usepackage	-9484
▁Alexander	-9485
void	-9486
▁Typ	-9487
ashed	-9488
▁autism	-9489
▁establishment	-9490
▁complement	-9491
VM	-9492
="@	-9493
▁Jun	-9494
power	-9495
endment	-9496
ospel	-9497
▁glac	-9498
forest	-9499
▁traits	-9500
▁officer	-9501
▁updates	-9502
▁Hospital	-9503
adata	-9504
▁dial	-9505
▁reflected	-9506
▁cycles	-9507
▁defines	-9508
▁actively	-9509
▁Questions	-9510
▁chemistry	-9511
▁fan	-9512
▁Origin	-9513
▁simultaneously	-9514
ensed	-9515
▁separation	-9516
keep	-9517
zyme	-9518
onomy	-9519
▁exped	-9520
▁racial	-9521
▁focusing	-9522
▁executive	-9523
▁indigenous	-9524
Run	-9525
agger	-9526
▁doct	-9527
▁Vietnam	-9528
▁compute	-9529
▁translated	-9530
▁digit	-9531
▁heaven	-9532
▁surprise	-9533
▁Bal	-9534
▁Master	-9535
▁CON	-9536
▁spray	-9537
▁displays	-9538
▁appreciate	-9539
ema	-9540
vin	-9541
values	-9542
through	-9543
▁JavaScript	-9544
uan	-9545
▁cord	-9546
▁Harvard	-9547
▁Testament	-9548
▁pod	-9549
iments	-9550
▁aimed	-9551
▁indirect	-9552
▁Van	-9553
books	-9554
▁Self	-9555
ortion	-9556
▁committee	-9557
dx	-9558
▁reconst	-9559
▁suddenly	-9560
▁meaningful	-9561
▁targeted	-9562
▁disabilities	-9563
oat	-9564
▁drivers	-9565
▁channels	-9566
▁watching	-9567
vol	-9568
▁DB	-9569
ethe	-9570
▁CM	-9571
olds	-9572
uled	-9573
▁Loc	-9574
▁tone	-9575
ustain	-9576
▁districts	-9577
▁transmitted	-9578
▁legit	-9579
▁tribes	-9580
▁streams	-9581
▁Economic	-9582
▁tact	-9583
irable	-9584
necess	-9585
▁anten	-9586
urated	-9587
▁crown	-9588
points	-9589
▁stones	-9590
▁counsel	-9591
▁streets	-9592
▁assuming	-9593
psi	-9594
▁opinions	-9595
▁Ell	-9596
▁meals	-9597
▁semi	-9598
▁weigh	-9599
lections	-9600
▁distinction	-9601
uther	-9602
▁quad	-9603
▁attempted	-9604
Do	-9605
▁nom	-9606
▁revers	-9607
▁embedded	-9608
▁exciting	-9609
rium	-9610
▁pel	-9611
▁chair	-9612
▁robust	-9613
▁classified	-9614
▁personality	-9615
▁IE	-9616
▁honest	-9617
▁declare	-9618
▁antioxid	-9619
orer	-9620
▁cow	-9621
dated	-9622
▁Hard	-9623
▁entertain	-9624
}"	-9625
▁*)	-9626
auth	-9627
cludes	-9628
▁occas	-9629
▁hunting	-9630
▁educators	-9631
▁societies	-9632
ymes	-9633
▁alph	-9634
▁Elizabeth	-9635
True	-9636
▁Hig	-9637
▁kingdom	-9638
▁Jerusalem	-9639
▁discussions	-9640
▁consciousness	-9641
▁varies	-9642
▁strategic	-9643
▁af	-9644
aded	-9645
▁Ram	-9646
▁Grow	-9647
▁Iraq	-9648
▁cyber	-9649
▁pursu	-9650
▁evident	-9651
▁literary	-9652
(){	-9653
src	-9654
nings	-9655
▁emit	-9656
▁theoretical	-9657
▁privacy	-9658
▁bon	-9659
▁obj	-9660
▁cure	-9661
▁Writing	-9662
▁namespace	-9663
,-	-9664
▁summar	-9665
▁Computer	-9666
▁Content	-9667
▁factory	-9668
▁spatial	-9669
ло	-9670
acks	-9671
▁Var	-9672
▁accord	-9673
▁hat	-9674
▁sevent	-9675
Ext	-9676
wall	-9677
▁Basic	-9678
▁shore	-9679
holders	-9680
▁Daniel	-9681
▁exhibit	-9682
▁completion	-9683
They	-9684
▁fur	-9685
▁gif	-9686
▁legend	-9687
css	-9688
▁Git	-9689
▁collections	-9690
▁scal	-9691
▁tends	-9692
▁payment	-9693
erb	-9694
▁inputs	-9695
▁ignored	-9696
▁sensors	-9697
bian	-9698
uten	-9699
▁encoding	-9700
▁Laboratory	-9701
▁::	-9702
▁os	-9703
feed	-9704
▁Son	-9705
Group	-9706
formed	-9707
▁urine	-9708
▁Command	-9709
▁requiring	-9710
▁atomic	-9711
▁alternatives	-9712
▁Bh	-9713
args	-9714
aints	-9715
▁Bern	-9716
▁ownership	-9717
=>	-9718
Hz	-9719
aret	-9720
▁Him	-9721
▁Turk	-9722
▁robot	-9723
▁votes	-9724
▁deeply	-9725
▁Colorado	-9726
▁enormous	-9727
icy	-9728
▁CG	-9729
▁peer	-9730
▁chromos	-9731
▁bub	-9732
ships	-9733
Length	-9734
▁Justice	-9735
▁faculty	-9736
▁implicit	-9737
▁describing	-9738
End	-9739
▁BY	-9740
inters	-9741
▁sculpt	-9742
▁efficiently	-9743
▁intu	-9744
▁bought	-9745
▁evaluated	-9746
See	-9747
▁tong	-9748
abases	-9749
▁Index	-9750
▁continuing	-9751
▁Farm	-9752
wan	-9753
▁fifth	-9754
▁Egyptian	-9755
▁Physical	-9756
▁transferred	-9757
▁biodiversity	-9758
ceans	-9759
▁farms	-9760
▁Between	-9761
▁reasoning	-9762
▁psychology	-9763
▁restricted	-9764
▁irr	-9765
▁innovative	-9766
▁animation	-9767
▁Hit	-9768
▁edited	-9769
▁regime	-9770
▁Independ	-9771
▁forecast	-9772
▁deficiency	-9773
TR	-9774
opher	-9775
▁aging	-9776
▁Palest	-9777
▁dispos	-9778
▁Scotland	-9779
▁candidates	-9780
Eng	-9781
▁representative	-9782
▁Monday	-9783
▁Wildlife	-9784
▁Think	-9785
▁aside	-9786
▁shaped	-9787
▁pleasure	-9788
▁associate	-9789
!"	-9790
uf	-9791
▁BM	-9792
▁Cr	-9793
▁PhD	-9794
▁Unit	-9795
mediate	-9796
▁dominant	-9797
▁comparing	-9798
enu	-9799
▁unp	-9800
▁encl	-9801
▁xml	-9802
ainer	-9803
▁welcome	-9804
▁surprised	-9805
▁adopt	-9806
▁cited	-9807
▁adolesc	-9808
▁consequence	-9809
▁Task	-9810
▁bool	-9811
▁CL	-9812
▁Hyd	-9813
▁Mid	-9814
▁ster	-9815
▁begun	-9816
▁Friday	-9817
thew	-9818
chain	-9819
delta	-9820
iples	-9821
▁lingu	-9822
▁surge	-9823
▁buying	-9824
▁violent	-9825
▁planting	-9826
▁vegetation	-9827
bell	-9828
▁Working	-9829
uns	-9830
▁IM	-9831
▁friendly	-9832
▁collective	-9833
'),	-9834
ori	-9835
▁Wed	-9836
uscript	-9837
▁anticip	-9838
ois	-9839
▁Cub	-9840
▁uncon	-9841
password	-9842
nut	-9843
▁FOR	-9844
▁paying	-9845
▁elections	-9846
kit	-9847
▁protective	-9848
▁Agriculture	-9849
▁photographs	-9850
frak	-9851
ocial	-9852
▁Biology	-9853
▁adverse	-9854
▁disadvant	-9855
FL	-9856
UP	-9857
▁convenient	-9858
role	-9859
Delta	-9860
langle	-9861
▁convey	-9862
▁achievement	-9863
AND	-9864
▁Sn	-9865
sync	-9866
aters	-9867
▁Fred	-9868
ени	-9869
▁promoting	-9870
▁behavioral	-9871
also	-9872
ilst	-9873
▁Dom	-9874
▁Enc	-9875
▁Diet	-9876
▁Much	-9877
▁PL	-9878
▁recording	-9879
▁universities	-9880
nn	-9881
▁Ren	-9882
▁Cost	-9883
▁Observ	-9884
▁fought	-9885
▁Num	-9886
arios	-9887
asses	-9888
▁Blood	-9889
▁Offic	-9890
▁hormone	-9891
▁victory	-9892
borne	-9893
▁dies	-9894
ragment	-9895
▁currency	-9896
▁overview	-9897
▁prevents	-9898
ports	-9899
Response	-9900
▁occupied	-9901
neg	-9902
undle	-9903
▁cancers	-9904
▁mistake	-9905
▁ion	-9906
▁intr	-9907
iblical	-9908
▁emerging	-9909
▁graduate	-9910
inv	-9911
itled	-9912
▁orange	-9913
▁tension	-9914
▁Aud	-9915
▁Fed	-9916
▁Corn	-9917
▁Fair	-9918
covery	-9919
github	-9920
▁Graph	-9921
▁varying	-9922
▁Dam	-9923
▁Hay	-9924
▁bugs	-9925
▁MySQL	-9926
▁merge	-9927
▁poetry	-9928
▁Assembly	-9929
▁answered	-9930
▁distribut	-9931
▁Navy	-9932
isting	-9933
▁heritage	-9934
▁proposal	-9935
ometer	-9936
}.	-9937
quare	-9938
▁Andrew	-9939
▁receives	-9940
▁calculation	-9941
ART	-9942
▁coat	-9943
▁scales	-9944
mathfrak	-9945
▁Physics	-9946
▁/*	-9947
▁EPA	-9948
aware	-9949
▁Senate	-9950
▁emotion	-9951
▁suppose	-9952
)-	-9953
▁juris	-9954
▁ranging	-9955
Head	-9956
▁anger	-9957
▁stake	-9958
▁Ministry	-9959
▁Es	-9960
idal	-9961
▁Fil	-9962
▁Twitter	-9963
▁vaccines	-9964
ERT	-9965
yer	-9966
▁lip	-9967
ician	-9968
rible	-9969
▁boxes	-9970
▁Turkey	-9971
elescope	-9972
▁compiled	-9973
▁inherent	-9974
▁platforms	-9975
▁coordinate	-9976
▁accompanied	-9977
▁till	-9978
▁technological	-9979
▁б	-9980
▁tack	-9981
output	-9982
▁thank	-9983
▁refused	-9984
▁AP	-9985
NAME	-9986
▁Foo	-9987
▁soph	-9988
▁barrier	-9989
ila	-9990
▁disag	-9991
▁herself	-9992
":"	-9993
utable	-9994
▁zones	-9995
▁holiday	-9996
▁lecture	-9997
▁spacecraft	-9998
▁Op	-9999
friend	-10000
▁arc	-10001
aning	-10002
ouble	-10003
▁gent	-10004
▁brows	-10005
▁steam	-10006
▁Islands	-10007
▁fatigue	-10008
▁Symptoms	-10009
▁ensuring	-10010
▁mg	-10011
agan	-10012
orry	-10013
▁joy	-10014
▁Ha	-10015
acle	-10016
▁hal	-10017
▁wage	-10018
outheast	-10019
▁dynamics	-10020
DD	-10021
itar	-10022
▁Near	-10023
▁aest	-10024
ateral	-10025
operative	-10026
front	-10027
imary	-10028
▁Reference	-10029
▁connecting	-10030
▁DNS	-10031
▁Case	-10032
▁spoke	-10033
▁painful	-10034
▁synchron	-10035
▁ecological	-10036
Mat	-10037
▁nutrient	-10038
▁expertise	-10039
▁generator	-10040
++)	-10041
gon	-10042
leq	-10043
▁Mot	-10044
▁wal	-10045
▁ears	-10046
ologically	-10047
▁multiplic	-10048
bow	-10049
pled	-10050
▁engaging	-10051
▁stood	-10052
▁lighting	-10053
▁controlling	-10054
IE	-10055
:||	-10056
▁readily	-10057
▁marketing	-10058
ker	-10059
regular	-10060
▁Muslims	-10061
▁disability	-10062
▁Mess	-10063
▁COVID	-10064
▁Mexican	-10065
▁Understanding	-10066
▁Relig	-10067
elihood	-10068
▁grains	-10069
▁habitats	-10070
▁preserved	-10071
▁aggressive	-10072
.),	-10073
enda	-10074
aylor	-10075
▁perf	-10076
▁crash	-10077
▁deleted	-10078
▁encrypt	-10079
▁planted	-10080
▁minimize	-10081
▁Secretary	-10082
IX	-10083
▁Aff	-10084
▁Pack	-10085
▁lets	-10086
▁inherit	-10087
▁celebrated	-10088
▁Week	-10089
▁labour	-10090
▁stabil	-10091
▁happiness	-10092
▁referring	-10093
▁simulation	-10094
Back	-10095
▁vibr	-10096
AV	-10097
▁bonds	-10098
▁fuels	-10099
burn	-10100
▁Antar	-10101
▁Guard	-10102
▁ranges	-10103
▁membrane	-10104
▁batteries	-10105
▁Emer	-10106
▁href	-10107
▁temp	-10108
adelph	-10109
nected	-10110
▁lungs	-10111
!”	-10112
raham	-10113
▁spots	-10114
▁colony	-10115
▁floating	-10116
▁medicines	-10117
ji	-10118
lab	-10119
▁nuts	-10120
▁songs	-10121
Provider	-10122
▁reveals	-10123
iders	-10124
.||	-10125
Function	-10126
▁welfare	-10127
Main	-10128
rons	-10129
▁Bob	-10130
▁Bon	-10131
▁Encyclopedia	-10132
Co	-10133
▁rac	-10134
▁Tree	-10135
▁Contact	-10136
▁productivity	-10137
icture	-10138
▁Peace	-10139
▁teens	-10140
PDATE	-10141
rank	-10142
▁Oly	-10143
▁shed	-10144
uce	-10145
▁UV	-10146
▁Ice	-10147
Version	-10148
▁Ubuntu	-10149
▁resistant	-10150
sing	-10151
Server	-10152
screen	-10153
▁subsid	-10154
▁curious	-10155
▁vectors	-10156
▁occasionally	-10157
▁Neg	-10158
▁dil	-10159
second	-10160
▁Story	-10161
▁atmospheric	-10162
▁arrays	-10163
▁adjacent	-10164
▁frequencies	-10165
▁Chief	-10166
loc	-10167
▁ven	-10168
isons	-10169
........	-10170
white	-10171
▁wings	-10172
▁ч	-10173
▁vice	-10174
▁inspect	-10175
▁не	-10176
made	-10177
▁qualities	-10178
▁interventions	-10179
________________	-10180
▁ol	-10181
iterr	-10182
▁Cre	-10183
▁Unt	-10184
▁Moses	-10185
▁optical	-10186
▁unnecess	-10187
Open	-10188
▁buck	-10189
▁sacred	-10190
▁json	-10191
▁lawn	-10192
▁annot	-10193
▁beach	-10194
atching	-10195
message	-10196
▁Univers	-10197
gered	-10198
▁dipl	-10199
ressing	-10200
▁Century	-10201
▁gathered	-10202
▁herb	-10203
▁colonies	-10204
▁vitamins	-10205
▁withdraw	-10206
▁elementary	-10207
▁[[	-10208
▁Die	-10209
strap	-10210
▁voting	-10211
*/	-10212
Fl	-10213
method	-10214
▁mature	-10215
▁balanced	-10216
}}{	-10217
▁ER	-10218
First	-10219
▁bacterial	-10220
▁remarkable	-10221
▁classification	-10222
oves	-10223
▁Rail	-10224
println	-10225
▁Active	-10226
adelphia	-10227
kg	-10228
azz	-10229
▁forever	-10230
▁Scientific	-10231
cin	-10232
▁tob	-10233
▁dual	-10234
▁metals	-10235
▁prescribed	-10236
▁restoration	-10237
▁Bang	-10238
▁Bureau	-10239
▁restaur	-10240
Label	-10241
▁reserv	-10242
▁Historical	-10243
han	-10244
hire	-10245
▁pill	-10246
▁provision	-10247
leton	-10248
▁wise	-10249
▁verify	-10250
▁decimal	-10251
▁integers	-10252
▁conflicts	-10253
▁facilitate	-10254
▁cardiovascular	-10255
Med	-10256
step	-10257
▁reign	-10258
▁exceptions	-10259
Can	-10260
▁sale	-10261
Access	-10262
iterrane	-10263
dt	-10264
▁macro	-10265
service	-10266
▁varied	-10267
sex	-10268
ught	-10269
Current	-10270
▁dating	-10271
▁callback	-10272
▁predicted	-10273
RNA	-10274
Call	-10275
high	-10276
▁Gall	-10277
▁passion	-10278
▁з	-10279
inals	-10280
▁Greece	-10281
icrosoft	-10282
▁Property	-10283
▁unexpected	-10284
на	-10285
▁&=	-10286
Work	-10287
ivest	-10288
▁Pain	-10289
▁absorb	-10290
▁Ba	-10291
font	-10292
▁Soft	-10293
▁anch	-10294
▁lapt	-10295
CG	-10296
▁RA	-10297
▁Ord	-10298
▁purchased	-10299
NN	-10300
arer	-10301
▁Tri	-10302
aneous	-10303
▁Saint	-10304
▁parse	-10305
▁socket	-10306
ceptions	-10307
._	-10308
▁gast	-10309
▁Marine	-10310
▁Simple	-10311
▁forgot	-10312
▁(“	-10313
atin	-10314
edge	-10315
▁Bit	-10316
▁prey	-10317
▁containers	-10318
▁vo	-10319
perm	-10320
▁Town	-10321
▁enthus	-10322
▁queries	-10323
▁suicide	-10324
▁convention	-10325
▁flexibility	-10326
▁precip	-10327
▁relate	-10328
oca	-10329
▁folk	-10330
▁bottle	-10331
▁texture	-10332
chem	-10333
▁drops	-10334
▁rooms	-10335
▁Basically	-10336
:(	-10337
boot	-10338
ials	-10339
▁burden	-10340
▁origins	-10341
iterranean	-10342
▁pione	-10343
▁defining	-10344
▁nutritional	-10345
card	-10346
▁circles	-10347
▁wearing	-10348
▁sleeping	-10349
▁na	-10350
▁bears	-10351
▁favour	-10352
▁grammar	-10353
▁chocolate	-10354
▁accurately	-10355
fly	-10356
mers	-10357
▁sons	-10358
een	-10359
▁Commons	-10360
▁Culture	-10361
▁attractive	-10362
▁suggesting	-10363
▁germ	-10364
▁Future	-10365
▁Pope	-10366
▁crack	-10367
▁Nutrition	-10368
▁Hawai	-10369
▁Scholar	-10370
▁neurons	-10371
▁asks	-10372
▁repet	-10373
▁enjoyed	-10374
▁partially	-10375
EG	-10376
ла	-10377
acity	-10378
element	-10379
▁devast	-10380
▁consisting	-10381
Che	-10382
sun	-10383
▁nil	-10384
▁neural	-10385
▁circular	-10386
▁disabled	-10387
▁developments	-10388
igm	-10389
iop	-10390
▁pH	-10391
▁cul	-10392
▁bene	-10393
▁sodium	-10394
▁Sus	-10395
effic	-10396
older	-10397
▁Kids	-10398
ructive	-10399
▁((	-10400
ropri	-10401
▁args	-10402
▁busy	-10403
▁Making	-10404
▁Philipp	-10405
▁NA	-10406
▁Wel	-10407
▁Prob	-10408
▁gest	-10409
▁spinal	-10410
▁speaker	-10411
▁acknowled	-10412
▁Decl	-10413
▁arise	-10414
▁trauma	-10415
▁exploring	-10416
BI	-10417
▁fats	-10418
orient	-10419
▁Obama	-10420
▁treaty	-10421
OG	-10422
imp	-10423
▁Six	-10424
▁Virt	-10425
▁ruled	-10426
▁broadcast	-10427
ouses	-10428
▁inver	-10429
▁merch	-10430
▁tobacco	-10431
▁Heritage	-10432
▁involvement	-10433
▁simpler	-10434
ikz	-10435
▁FDA	-10436
▁iOS	-10437
▁hurt	-10438
plates	-10439
▁armed	-10440
▁attributed	-10441
PM	-10442
Per	-10443
law	-10444
olph	-10445
metic	-10446
▁Chrome	-10447
▁recurs	-10448
vec	-10449
▁Jackson	-10450
▁engagement	-10451
▁volunteers	-10452
▁broke	-10453
▁beneath	-10454
▁compost	-10455
▁consent	-10456
▁employee	-10457
lined	-10458
▁lift	-10459
▁Issue	-10460
iy	-10461
ela	-10462
▁Ah	-10463
ifer	-10464
▁Marsh	-10465
▁drinks	-10466
▁Station	-10467
▁likelihood	-10468
mid	-10469
rav	-10470
▁Neu	-10471
▁tang	-10472
▁Ancient	-10473
▁bleeding	-10474
elect	-10475
▁Trust	-10476
▁underground	-10477
git	-10478
entry	-10479
▁penet	-10480
▁Suppose	-10481
▁revenue	-10482
▁celebrate	-10483
Cell	-10484
▁counts	-10485
▁empire	-10486
▁shadow	-10487
▁editing	-10488
▁enz	-10489
▁unemploy	-10490
▁authentication	-10491
Pre	-10492
▁Opt	-10493
▁Adam	-10494
▁eleph	-10495
▁films	-10496
▁Abstract	-10497
▁ultimate	-10498
two	-10499
vector	-10500
▁namely	-10501
▁cooperation	-10502
▁sustainability	-10503
arks	-10504
▁dimin	-10505
quality	-10506
▁pollut	-10507
cr	-10508
▁fet	-10509
▁incent	-10510
complete	-10511
▁rejected	-10512
▁scenarios	-10513
mo	-10514
cul	-10515
▁Jon	-10516
about	-10517
▁Link	-10518
▁deer	-10519
▁Volume	-10520
▁filters	-10521
▁consistently	-10522
tains	-10523
▁sister	-10524
▁pointing	-10525
▁recycling	-10526
▁undefined	-10527
▁{}	-10528
orters	-10529
fulness	-10530
istically	-10531
▁encryption	-10532
▁advances	-10533
▁develops	-10534
▁entitled	-10535
DL	-10536
next	-10537
Child	-10538
▁cave	-10539
▁enemies	-10540
▁Creek	-10541
▁distant	-10542
▁sciences	-10543
ко	-10544
Char	-10545
▁cotton	-10546
▁imagination	-10547
,'	-10548
▁Need	-10549
▁bias	-10550
▁drives	-10551
▁funded	-10552
▁quantities	-10553
NO	-10554
)$,	-10555
▁""	-10556
▁{{	-10557
Part	-10558
oder	-10559
▁hell	-10560
▁lett	-10561
▁flags	-10562
command	-10563
▁divine	-10564
▁powder	-10565
▁Account	-10566
▁invention	-10567
▁attempting	-10568
▁declaration	-10569
▁establishing	-10570
terior	-10571
formance	-10572
▁navigation	-10573
▁circulation	-10574
▁Philadelphia	-10575
▁Pay	-10576
▁mes	-10577
▁trem	-10578
control	-10579
rapeutic	-10580
▁infants	-10581
▁competitive	-10582
worth	-10583
▁Fish	-10584
▁gift	-10585
▁inev	-10586
shaped	-10587
▁joints	-10588
▁invasion	-10589
▁inequality	-10590
▁transparent	-10591
ika	-10592
▁Kn	-10593
▁seal	-10594
▁mammals	-10595
▁productive	-10596
inois	-10597
named	-10598
icking	-10599
▁resil	-10600
▁slower	-10601
▁timing	-10602
▁mistakes	-10603
▁tracking	-10604
▁personnel	-10605
▁indicating	-10606
▁tap	-10607
olves	-10608
▁Others	-10609
▁approval	-10610
▁correlation	-10611
cp	-10612
▁GDP	-10613
▁Lay	-10614
▁cyl	-10615
▁Mong	-10616
entials	-10617
▁quotes	-10618
▁Mediterranean	-10619
////	-10620
sche	-10621
▁bell	-10622
▁gear	-10623
▁pace	-10624
▁patch	-10625
▁tries	-10626
▁analyzed	-10627
▁Tradition	-10628
itory	-10629
pathy	-10630
▁Title	-10631
▁juice	-10632
▁plasma	-10633
▁retain	-10634
▁wooden	-10635
original	-10636
▁municip	-10637
та	-10638
▁vig	-10639
▁fant	-10640
▁substr	-10641
VD	-10642
▁leak	-10643
▁motivation	-10644
ся	-10645
hea	-10646
▁Confed	-10647
disc	-10648
commun	-10649
▁Chall	-10650
▁stops	-10651
ountered	-10652
▁clothes	-10653
▁automatic	-10654
uate	-10655
▁Nob	-10656
utter	-10657
▁Korean	-10658
ications	-10659
velength	-10660
▁Lew	-10661
▁wid	-10662
▁IF	-10663
Impl	-10664
▁Rab	-10665
▁Cond	-10666
▁tort	-10667
ivestock	-10668
▁Angeles	-10669
▁logging	-10670
▁sacrifice	-10671
Exp	-10672
arded	-10673
▁encountered	-10674
Width	-10675
▁ко	-10676
gien	-10677
duate	-10678
ynasty	-10679
▁gardens	-10680
▁generates	-10681
vy	-10682
ер	-10683
)||	-10684
▁pets	-10685
▁digits	-10686
▁yields	-10687
make	-10688
econom	-10689
▁disable	-10690
▁Document	-10691
▁insights	-10692
▁sampling	-10693
▁surrounded	-10694
ón	-10695
when	-10696
inces	-10697
▁spark	-10698
response	-10699
▁collapse	-10700
▁queue	-10701
▁charges	-10702
▁selling	-10703
▁Download	-10704
▁Individual	-10705
▁Hot	-10706
▁Olymp	-10707
▁diver	-10708
▁throws	-10709
▁churches	-10710
▁liberal	-10711
▁async	-10712
▁annually	-10713
▁evolutionary	-10714
Me	-10715
deg	-10716
angel	-10717
heets	-10718
▁savings	-10719
▁colonial	-10720
▁Jr	-10721
▁-->	-10722
▁ash	-10723
▁cream	-10724
issance	-10725
▁replacing	-10726
▁struggling	-10727
▁enforcement	-10728
▁loads	-10729
▁preparing	-10730
▁synthetic	-10731
▁pseud	-10732
illance	-10733
western	-10734
▁Corpor	-10735
▁ecosystems	-10736
▁Exerc	-10737
▁allergic	-10738
regon	-10739
▁resemb	-10740
▁neglect	-10741
▁Mur	-10742
▁Nic	-10743
▁Club	-10744
▁arrive	-10745
▁SM	-10746
▁clouds	-10747
▁thrown	-10748
▁borders	-10749
▁Abraham	-10750
▁emerged	-10751
▁deposits	-10752
▁refugees	-10753
RS	-10754
bat	-10755
bul	-10756
▁LED	-10757
uster	-10758
▁Clinical	-10759
▁specialized	-10760
▁dramatically	-10761
▁administrative	-10762
rea	-10763
▁bunch	-10764
▁conve	-10765
▁relating	-10766
ка	-10767
your	-10768
▁Occ	-10769
▁append	-10770
▁databases	-10771
wa	-10772
во	-10773
▁shr	-10774
ceeds	-10775
ugging	-10776
irection	-10777
▁designated	-10778
▁manuscript	-10779
▁assumptions	-10780
▁./	-10781
bury	-10782
▁prayer	-10783
▁operated	-10784
▁Cook	-10785
Integer	-10786
▁Berlin	-10787
▁graphics	-10788
▁Nevertheless	-10789
env	-10790
▁<=	-10791
thur	-10792
bound	-10793
flamm	-10794
layer	-10795
omers	-10796
▁Temple	-10797
▁boolean	-10798
▁('	-10799
▁Clear	-10800
▁globe	-10801
▁sectors	-10802
▁brothers	-10803
▁minority	-10804
▁submitted	-10805
inch	-10806
ighth	-10807
▁Mind	-10808
▁decom	-10809
▁winds	-10810
▁themes	-10811
natural	-10812
▁printf	-10813
▁reflects	-10814
▁immigrants	-10815
oler	-10816
▁Ray	-10817
▁sys	-10818
▁genome	-10819
▁placing	-10820
▁Depending	-10821
▁Ro	-10822
note	-10823
rait	-10824
▁gro	-10825
▁dump	-10826
▁Colon	-10827
▁reset	-10828
▁Flow	-10829
▁rays	-10830
▁duplicate	-10831
▁discipline	-10832
▁separately	-10833
▁tu	-10834
Some	-10835
sters	-10836
▁holy	-10837
rained	-10838
▁applicable	-10839
▁prevalence	-10840
▁kg	-10841
elly	-10842
ilib	-10843
▁Guid	-10844
▁doors	-10845
▁talks	-10846
▁grades	-10847
▁independently	-10848
Os	-10849
ICE	-10850
}}\	-10851
▁Trade	-10852
▁reson	-10853
▁tough	-10854
▁medieval	-10855
▁combinations	-10856
ket	-10857
▁vow	-10858
▁Looking	-10859
▁conclusions	-10860
▁inhabitants	-10861
obic	-10862
▁thesis	-10863
▁altered	-10864
▁analyses	-10865
▁engineer	-10866
▁interpreted	-10867
psy	-10868
▁WW	-10869
▁rod	-10870
acles	-10871
▁spons	-10872
athan	-10873
quiry	-10874
inator	-10875
▁dairy	-10876
▁bat	-10877
stack	-10878
▁Site	-10879
▁beta	-10880
issipp	-10881
▁Related	-10882
▁reviewed	-10883
▁Meanwhile	-10884
mem	-10885
bind	-10886
▁mile	-10887
▁rent	-10888
▁visits	-10889
▁judgment	-10890
▁villages	-10891
▁differential	-10892
.]	-10893
OU	-10894
Items	-10895
▁Emperor	-10896
▁handler	-10897
▁tendency	-10898
^^	-10899
▁Arm	-10900
▁Ont	-10901
▁cameras	-10902
▁calendar	-10903
▁sediment	-10904
────	-10905
▁bee	-10906
▁hex	-10907
don	-10908
▁tar	-10909
▁clay	-10910
▁persu	-10911
▁surveys	-10912
▁awarded	-10913
▁Generally	-10914
():	-10915
Menu	-10916
hard	-10917
▁enzyme	-10918
▁sphere	-10919
▁Wis	-10920
▁reef	-10921
mental	-10922
activity	-10923
▁Activity	-10924
▁visiting	-10925
▁expanding	-10926
▁contributing	-10927
▁Sem	-10928
parse	-10929
▁isolation	-10930
▁prisoners	-10931
▁workplace	-10932
▁addressing	-10933
▁validation	-10934
omal	-10935
▁Risk	-10936
▁hopes	-10937
▁invalid	-10938
▁Diabetes	-10939
▁tolerance	-10940
OIN	-10941
▁estate	-10942
▁scripts	-10943
▁humidity	-10944
▁missions	-10945
▁Mathematics	-10946
▁survived	-10947
▁Charl	-10948
▁coron	-10949
▁Illinois	-10950
▁Framework	-10951
▁developer	-10952
▁specialist	-10953
cup	-10954
there	-10955
▁cuts	-10956
▁wars	-10957
▁viral	-10958
▁Oregon	-10959
▁incidence	-10960
mt	-10961
▁Draw	-10962
▁schem	-10963
eq	-10964
▁Opp	-10965
anche	-10966
▁rings	-10967
▁amongst	-10968
▁barriers	-10969
ologic	-10970
▁meetings	-10971
tmp	-10972
▁twe	-10973
▁von	-10974
▁Resp	-10975
▁Clean	-10976
▁arrival	-10977
▁closest	-10978
▁cellular	-10979
▁vegetable	-10980
cf	-10981
Bean	-10982
▁$('	-10983
holder	-10984
▁Kansas	-10985
operator	-10986
▁reinforce	-10987
▁systematic	-10988
mult	-10989
ogens	-10990
▁incl	-10991
▁logs	-10992
erving	-10993
iating	-10994
▁amino	-10995
▁slope	-10996
▁Taylor	-10997
▁struck	-10998
▁Kennedy	-10999
▁abandoned	-11000
ALL	-11001
iger	-11002
uler	-11003
▁vag	-11004
eller	-11005
store	-11006
▁tower	-11007
Project	-11008
ivities	-11009
▁paintings	-11010
teb	-11011
That	-11012
▁UPDATE	-11013
▁presum	-11014
▁shares	-11015
▁Usually	-11016
Em	-11017
icut	-11018
ariant	-11019
▁fatal	-11020
▁phones	-11021
▁outbreak	-11022
pa	-11023
▁**	-11024
▁backup	-11025
▁installing	-11026
raine	-11027
▁Cred	-11028
▁Buddh	-11029
▁Execut	-11030
▁Jersey	-11031
▁Besides	-11032
▁foreach	-11033
▁avoiding	-11034
▁entities	-11035
▁↑	-11036
CON	-11037
▁Fle	-11038
▁enum	-11039
▁citizen	-11040
erer	-11041
▁Corps	-11042
▁conqu	-11043
▁Arabic	-11044
So	-11045
pow	-11046
gamma	-11047
▁Front	-11048
▁missed	-11049
▁succeeded	-11050
scope	-11051
▁hung	-11052
▁lakes	-11053
▁paste	-11054
▁thinks	-11055
PDF	-11056
Url	-11057
▁Hem	-11058
▁hang	-11059
▁loan	-11060
domain	-11061
static	-11062
▁Carib	-11063
▁fulfill	-11064
▁invasive	-11065
▁Additional	-11066
▁hol	-11067
▁elevated	-11068
▁magazine	-11069
▁severity	-11070
================	-11071
bone	-11072
▁abol	-11073
▁gray	-11074
umatic	-11075
▁Watch	-11076
▁cursor	-11077
.-	-11078
CN	-11079
▁partly	-11080
▁philos	-11081
▁Student	-11082
▁continent	-11083
EP	-11084
uct	-11085
▁Os	-11086
▁CRE	-11087
▁Flu	-11088
▁episode	-11089
▁alongside	-11090
IB	-11091
▁Hom	-11092
▁Total	-11093
▁subset	-11094
▁notation	-11095
▁Mississipp	-11096
▁Statistics	-11097
Phone	-11098
▁loud	-11099
▁pitch	-11100
▁myster	-11101
▁alphabet	-11102
▁seasonal	-11103
▁persistent	-11104
rose	-11105
▁Lie	-11106
▁obl	-11107
▁Kent	-11108
▁compass	-11109
▁injection	-11110
▁intervals	-11111
▁phenomena	-11112
▁metabolism	-11113
aze	-11114
Task	-11115
dess	-11116
▁Dim	-11117
▁exch	-11118
▁tied	-11119
▁painted	-11120
RC	-11121
▁Ash	-11122
arding	-11123
▁Large	-11124
▁Sleep	-11125
▁pushed	-11126
▁tongue	-11127
▁Matthew	-11128
▁chicken	-11129
▁fingers	-11130
empl	-11131
entia	-11132
▁#####	-11133
▁shoes	-11134
isticated	-11135
▁inflation	-11136
▁officially	-11137
▁confront	-11138
▁symbolic	-11139
▁distances	-11140
▁inspiration	-11141
Fig	-11142
▁sel	-11143
▁Game	-11144
▁canal	-11145
▁desktop	-11146
rological	-11147
▁kilometers	-11148
▁['	-11149
▁shade	-11150
▁Certain	-11151
▁prosper	-11152
▁trading	-11153
▁smallest	-11154
▁ng	-11155
urse	-11156
▁sug	-11157
▁atom	-11158
▁Quant	-11159
▁sends	-11160
doi	-11161
▁nic	-11162
▁regex	-11163
▁Alaska	-11164
▁invented	-11165
arts	-11166
import	-11167
▁collecting	-11168
acon	-11169
orem	-11170
▁modes	-11171
▁Wilson	-11172
▁subtle	-11173
▁influences	-11174
*)	-11175
▁OP	-11176
Options	-11177
▁debris	-11178
▁perpet	-11179
▁decreases	-11180
▁Talk	-11181
▁contrary	-11182
▁discharge	-11183
▁personally	-11184
▁unnecessary	-11185
▁twelve	-11186
▁ancestors	-11187
▁Pi	-11188
agle	-11189
▁Walk	-11190
random	-11191
▁elabor	-11192
▁prefix	-11193
Acc	-11194
▁diets	-11195
▁accessed	-11196
▁rainfall	-11197
▁surgical	-11198
enti	-11199
▁dish	-11200
▁associations	-11201
bt	-11202
ем	-11203
▁Uk	-11204
▁Bad	-11205
▁dying	-11206
▁Arts	-11207
▁Http	-11208
▁Death	-11209
▁Hindu	-11210
▁avoided	-11211
▁profound	-11212
▁Luc	-11213
▁McC	-11214
assium	-11215
▁recon	-11216
ariable	-11217
▁Answer	-11218
▁Mother	-11219
▁compatible	-11220
▁practition	-11221
stic	-11222
▁patent	-11223
▁rhythm	-11224
▁speeds	-11225
▁stretch	-11226
▁adoption	-11227
▁permitted	-11228
springframework	-11229
ти	-11230
▁ssh	-11231
etric	-11232
ysical	-11233
▁Begin	-11234
▁tumors	-11235
▁Schools	-11236
▁coding	-11237
▁configure	-11238
md	-11239
▁Ult	-11240
ranch	-11241
▁feas	-11242
▁Sustain	-11243
▁anymore	-11244
▁Williams	-11245
▁triangle	-11246
▁"/	-11247
▁Sel	-11248
arest	-11249
▁chat	-11250
▁pose	-11251
▁extraord	-11252
▁determines	-11253
stud	-11254
uras	-11255
▁tracks	-11256
▁DM	-11257
inner	-11258
status	-11259
▁arter	-11260
▁camps	-11261
article	-11262
▁alumin	-11263
▁outdoor	-11264
▁ma	-11265
zero	-11266
▁Requ	-11267
forced	-11268
izable	-11269
otimes	-11270
▁belongs	-11271
clusively	-11272
▁conclude	-11273
sign	-11274
▁Say	-11275
▁Wars	-11276
▁arrow	-11277
Process	-11278
▁fiction	-11279
▁mounted	-11280
trl	-11281
ollo	-11282
oons	-11283
thread	-11284
▁swelling	-11285
${	-11286
▁Pow	-11287
scill	-11288
tered	-11289
▁pupils	-11290
▁thirty	-11291
▁corporate	-11292
▁Job	-11293
▁Mrs	-11294
▁closing	-11295
▁inherited	-11296
▁»	-11297
chi	-11298
▁Was	-11299
around	-11300
▁weaken	-11301
▁confusing	-11302
▁Ni	-11303
▁afra	-11304
▁Animal	-11305
▁Teaching	-11306
:/	-11307
Dele	-11308
match	-11309
▁Output	-11310
▁freely	-11311
▁Jefferson	-11312
▁translate	-11313
LC	-11314
oop	-11315
▁Cit	-11316
itzer	-11317
▁Carl	-11318
▁thumb	-11319
▁oceans	-11320
▁integrity	-11321
▁subsequently	-11322
▁Iron	-11323
▁sulf	-11324
▁Until	-11325
▁march	-11326
plements	-11327
▁buttons	-11328
▁popularity	-11329
EA	-11330
▁Han	-11331
▁Five	-11332
astics	-11333
engers	-11334
iosity	-11335
▁Hitler	-11336
▁afraid	-11337
▁wavelength	-11338
oys	-11339
pop	-11340
▁COM	-11341
▁cran	-11342
▁Daily	-11343
aternal	-11344
▁abundance	-11345
▁qualified	-11346
Node	-11347
emon	-11348
▁Jim	-11349
▁plates	-11350
▁weights	-11351
▁hospitals	-11352
bas	-11353
emed	-11354
grow	-11355
orus	-11356
stra	-11357
Don	-11358
Pass	-11359
ibli	-11360
ifiers	-11361
▁cough	-11362
▁ports	-11363
▁tomat	-11364
▁bullying	-11365
▁fascinating	-11366
uine	-11367
▁Isa	-11368
plane	-11369
ropol	-11370
otypes	-11371
▁Compar	-11372
▁throat	-11373
▁illnesses	-11374
▁encouraging	-11375
▁elig	-11376
▁Paper	-11377
▁Prime	-11378
▁excav	-11379
▁murder	-11380
▁strictly	-11381
▁absorption	-11382
▁endangered	-11383
▁accomplished	-11384
)$$	-11385
render	-11386
▁valve	-11387
▁entrance	-11388
▁regulate	-11389
▁spreading	-11390
▁attacked	-11391
▁achieving	-11392
Det	-11393
obe	-11394
▁(-	-11395
oved	-11396
▁Buddha	-11397
isations	-11398
▁carries	-11399
▁Mountain	-11400
▁susceptible	-11401
▁Fa	-11402
▁mock	-11403
▁elderly	-11404
▁democratic	-11405
▁illustrate	-11406
plus	-11407
▁wash	-11408
uclear	-11409
▁False	-11410
▁incorporated	-11411
fox	-11412
rat	-11413
▁Hop	-11414
alloc	-11415
▁Thread	-11416
▁crimes	-11417
▁google	-11418
▁minister	-11419
▁molecule	-11420
usc	-11421
▁Fac	-11422
▁alien	-11423
▁lying	-11424
▁proud	-11425
▁nucleus	-11426
▁Practice	-11427
▁addiction	-11428
▁incorporate	-11429
ogg	-11430
itus	-11431
▁Sens	-11432
▁Teachers	-11433
▁enhanced	-11434
▁consuming	-11435
▁capability	-11436
▁punishment	-11437
▁Mississippi	-11438
▁Pu	-11439
▁cod	-11440
▁bars	-11441
▁fles	-11442
▁Nether	-11443
etically	-11444
▁improves	-11445
▁managers	-11446
ni	-11447
Spec	-11448
▁Sav	-11449
▁oxide	-11450
bec	-11451
Mode	-11452
▁Jones	-11453
▁weekly	-11454
▁Console	-11455
▁Getting	-11456
▁Ty	-11457
▁Very	-11458
▁calm	-11459
▁Brain	-11460
▁coinc	-11461
▁picked	-11462
▁acquire	-11463
▁optional	-11464
Pan	-11465
ulous	-11466
▁publ	-11467
▁immunity	-11468
▁impression	-11469
▁:)	-11470
▁Ga	-11471
iances	-11472
▁salmon	-11473
▁affairs	-11474
▁importantly	-11475
uv	-11476
aft	-11477
▁Bell	-11478
ridges	-11479
uesday	-11480
▁burned	-11481
▁Protest	-11482
▁singular	-11483
▁intermediate	-11484
aque	-11485
▁duties	-11486
▁consensus	-11487
application	-11488
▁Bot	-11489
CTION	-11490
▁Sche	-11491
▁docs	-11492
▁absorbed	-11493
▁Standards	-11494
▁repeatedly	-11495
itate	-11496
▁forb	-11497
▁whites	-11498
pectives	-11499
▁explaining	-11500
*}	-11501
ffe	-11502
▁ow	-11503
▁caps	-11504
▁sheep	-11505
▁puzzle	-11506
▁Version	-11507
▁excited	-11508
▁Mi	-11509
oline	-11510
iative	-11511
▁stere	-11512
▁referen	-11513
▁supplied	-11514
yy	-11515
enza	-11516
▁ham	-11517
▁mirror	-11518
▁Element	-11519
▁enzymes	-11520
▁numerical	-11521
▁creativity	-11522
ghan	-11523
Widget	-11524
uction	-11525
▁categor	-11526
MM	-11527
да	-11528
▁nick	-11529
fields	-11530
▁Luther	-11531
▁Philip	-11532
▁senses	-11533
▁determin	-11534
▁inch	-11535
▁reviews	-11536
▁Caribbean	-11537
▁Dub	-11538
osaur	-11539
▁livestock	-11540
ById	-11541
zona	-11542
apsed	-11543
▁quot	-11544
scribe	-11545
▁retail	-11546
▁handled	-11547
▁offices	-11548
▁dementia	-11549
▁sophisticated	-11550
▁ov	-11551
imen	-11552
onom	-11553
icode	-11554
▁Marc	-11555
▁erosion	-11556
▁pipeline	-11557
▁interrupt	-11558
▁у	-11559
="{	-11560
Init	-11561
attr	-11562
ogene	-11563
▁meter	-11564
▁builds	-11565
▁Present	-11566
secut	-11567
▁pale	-11568
istence	-11569
▁homework	-11570
%;	-11571
ASS	-11572
atile	-11573
▁ninet	-11574
▁colored	-11575
▁runtime	-11576
▁allergies	-11577
▁provisions	-11578
▁continuously	-11579
▁Sin	-11580
▁Sher	-11581
▁sovere	-11582
▁designing	-11583
▁bulk	-11584
▁legacy	-11585
artifact	-11586
ito	-11587
▁Mos	-11588
▁gau	-11589
▁Thurs	-11590
▁diarr	-11591
▁grace	-11592
▁Things	-11593
Resource	-11594
▁broader	-11595
▁filling	-11596
▁respective	-11597
▁civilization	-11598
blue	-11599
bour	-11600
Entity	-11601
▁Prince	-11602
Attribute	-11603
▁inserted	-11604
▁Something	-11605
ouri	-11606
letter	-11607
▁inclusion	-11608
▁Democratic	-11609
▁Connecticut	-11610
▁representatives	-11611
ques	-11612
▁####	-11613
master	-11614
▁Indones	-11615
▁closure	-11616
▁mutation	-11617
▁Architect	-11618
cribe	-11619
dfrac	-11620
▁Darwin	-11621
▁economics	-11622
▁[]	-11623
▁Conc	-11624
ernate	-11625
▁Syria	-11626
▁Foreign	-11627
▁Install	-11628
▁equipped	-11629
▁requested	-11630
▁initiatives	-11631
cycle	-11632
▁wake	-11633
▁Video	-11634
▁chamber	-11635
placement	-11636
▁Rog	-11637
roduct	-11638
Collection	-11639
▁exhibition	-11640
zip	-11641
dist	-11642
▁Drug	-11643
python	-11644
▁volumes	-11645
▁indicator	-11646
GS	-11647
dp	-11648
rand	-11649
ulture	-11650
▁algae	-11651
▁earned	-11652
▁outline	-11653
▁fertilizer	-11654
GA	-11655
Mon	-11656
obj	-11657
anas	-11658
▁Tool	-11659
▁Types	-11660
▁outputs	-11661
▁transactions	-11662
III	-11663
acher	-11664
▁recre	-11665
▁sympt	-11666
▁impair	-11667
▁shield	-11668
▁angular	-11669
▁monthly	-11670
Down	-11671
▁Node	-11672
▁ethics	-11673
▁Results	-11674
LD	-11675
wp	-11676
phal	-11677
▁memor	-11678
reement	-11679
▁Ontario	-11680
▁rendered	-11681
oult	-11682
▁soy	-11683
▁Imag	-11684
center	-11685
▁behave	-11686
▁decent	-11687
▁Assessment	-11688
▁transplant	-11689
▁transformed	-11690
ussian	-11691
▁argues	-11692
ilibrium	-11693
▁username	-11694
}^{\	-11695
▁Gro	-11696
ermat	-11697
▁scenes	-11698
▁footprint	-11699
ulsion	-11700
▁TABLE	-11701
success	-11702
▁Employ	-11703
▁denied	-11704
▁reproductive	-11705
CI	-11706
▁grep	-11707
Output	-11708
▁dollar	-11709
▁equals	-11710
▁nested	-11711
▁sheets	-11712
▁bearing	-11713
▁malaria	-11714
...]	-11715
▁cig	-11716
▁gum	-11717
▁Taking	-11718
▁grants	-11719
▁wireless	-11720
wrap	-11721
▁Had	-11722
▁não	-11723
antine	-11724
▁Governor	-11725
▁uncertainty	-11726
norm	-11727
mount	-11728
▁gaps	-11729
bestos	-11730
▁eaten	-11731
▁sorts	-11732
▁conform	-11733
▁processor	-11734
▁dependency	-11735
▁slide	-11736
attered	-11737
▁flavor	-11738
▁hormones	-11739
▁organism	-11740
they	-11741
▁Represent	-11742
▁attitudes	-11743
▁occurrence	-11744
Note	-11745
iguous	-11746
nesota	-11747
▁pipes	-11748
▁refrig	-11749
▁randomly	-11750
▁resolved	-11751
lear	-11752
▁bases	-11753
isition	-11754
▁valley	-11755
▁imported	-11756
▁disappear	-11757
▁implements	-11758
sa	-11759
▁(\	-11760
▁Eval	-11761
▁Cloud	-11762
▁proxy	-11763
▁easiest	-11764
▁variant	-11765
▁predomin	-11766
▁dependencies	-11767
gly	-11768
▁AB	-11769
▁ASP	-11770
▁Hung	-11771
▁divers	-11772
▁mud	-11773
▁beam	-11774
consin	-11775
profit	-11776
epsilon	-11777
ci	-11778
dk	-11779
▁Ford	-11780
Figure	-11781
▁essence	-11782
▁counting	-11783
▁doctrine	-11784
UD	-11785
TeX	-11786
fol	-11787
▁Fer	-11788
▁bags	-11789
▁overlook	-11790
▁Available	-11791
bits	-11792
Google	-11793
engine	-11794
▁Allah	-11795
▁Hispan	-11796
▁passive	-11797
▁modeling	-11798
pub	-11799
inery	-11800
▁prone	-11801
▁Poland	-11802
▁dialogue	-11803
▁authentic	-11804
jud	-11805
▁Oil	-11806
types	-11807
▁Bush	-11808
hedral	-11809
▁unity	-11810
▁docker	-11811
▁hardly	-11812
▁irregular	-11813
▁metabolic	-11814
▁concentrated	-11815
▁oste	-11816
▁screw	-11817
▁assault	-11818
▁producers	-11819
bro	-11820
▁devoted	-11821
▁diamond	-11822
izz	-11823
odox	-11824
rint	-11825
ilton	-11826
▁Tenn	-11827
▁zinc	-11828
▁shallow	-11829
▁thyroid	-11830
▁abundant	-11831
▁mutations	-11832
▁constitutional	-11833
”)	-11834
▁titles	-11835
▁triggered	-11836
mys	-11837
pie	-11838
▁Lind	-11839
▁publish	-11840
▁attended	-11841
▁Otherwise	-11842
▁prevented	-11843
▁thickness	-11844
▁derivative	-11845
▁pesticides	-11846
users	-11847
ynamic	-11848
▁shrub	-11849
factory	-11850
riction	-11851
▁prolong	-11852
▁swimming	-11853
▁protocols	-11854
[\	-11855
iph	-11856
iro	-11857
unit	-11858
Range	-11859
month	-11860
▁Garden	-11861
▁compress	-11862
▁compression	-11863
▁traditionally	-11864
▁gran	-11865
▁prol	-11866
articles	-11867
▁Arizona	-11868
▁dismiss	-11869
▁shelter	-11870
▁Advanced	-11871
▁speakers	-11872
▁accounting	-11873
float	-11874
▁Cold	-11875
▁hills	-11876
▁canvas	-11877
▁meteor	-11878
▁Tuesday	-11879
xs	-11880
▁MB	-11881
▁PA	-11882
thood	-11883
▁boards	-11884
▁frames	-11885
▁pursue	-11886
template	-11887
romagnetic	-11888
who	-11889
Post	-11890
ownt	-11891
▁php	-11892
▁vom	-11893
oxide	-11894
▁asym	-11895
▁obsc	-11896
▁empir	-11897
▁soils	-11898
▁stems	-11899
▁fibers	-11900
▁substitute	-11901
▁Zh	-11902
gate	-11903
▁Ros	-11904
▁rib	-11905
▁uma	-11906
arten	-11907
graph	-11908
imals	-11909
▁Orth	-11910
▁heter	-11911
▁attain	-11912
▁marker	-11913
▁Philosoph	-11914
▁arthritis	-11915
▁physicians	-11916
rb	-11917
"))	-11918
▁aster	-11919
▁demonstrates	-11920
Token	-11921
split	-11922
▁mini	-11923
▁Lewis	-11924
▁Series	-11925
property	-11926
▁clusters	-11927
▁memories	-11928
▁Character	-11929
grid	-11930
▁ALL	-11931
▁rom	-11932
scious	-11933
▁admit	-11934
▁doses	-11935
▁ought	-11936
▁brains	-11937
▁hoping	-11938
▁overhead	-11939
wer	-11940
▁Ten	-11941
backs	-11942
▁grey	-11943
▁knee	-11944
▁curves	-11945
lications	-11946
▁settlers	-11947
▁Collection	-11948
...)	-11949
arse	-11950
▁Excel	-11951
▁mysql	-11952
▁vacuum	-11953
artifactId	-11954
▁manufacturer	-11955
MB	-11956
▁hygien	-11957
▁surviv	-11958
▁utilize	-11959
▁traveling	-11960
struct	-11961
chnology	-11962
▁kitchen	-11963
▁governor	-11964
▁similarly	-11965
aver	-11966
ochond	-11967
reprene	-11968
▁Maryland	-11969
▁therapies	-11970
▁operational	-11971
▁RAM	-11972
▁oils	-11973
▁hosts	-11974
▁whales	-11975
▁Monitor	-11976
▁Thursday	-11977
▁contaminated	-11978
mbol	-11979
▁courage	-11980
▁Training	-11981
▁progression	-11982
eu	-11983
▁erect	-11984
▁altitude	-11985
endor	-11986
remove	-11987
▁alpha	-11988
▁harsh	-11989
▁Remove	-11990
▁markers	-11991
▁Minnesota	-11992
▁suggestion	-11993
▁compensation	-11994
ULT	-11995
nav	-11996
sequently	-11997
▁Netherlands	-11998
▁adolescents	-11999
!--	-12000
azy	-12001
ikes	-12002
custom	-12003
nesday	-12004
▁tribe	-12005
▁poorly	-12006
▁fitness	-12007
▁lasting	-12008
▁assessed	-12009
▁regulatory	-12010
NE	-12011
▁CDC	-12012
▁bull	-12013
▁defeat	-12014
▁thoroughly	-12015
itting	-12016
▁Transl	-12017
▁mutual	-12018
▁featured	-12019
▁employers	-12020
▁registration	-12021
▁Hon	-12022
icked	-12023
Direct	-12024
▁fluor	-12025
▁bold	-12026
▁clicking	-12027
adow	-12028
▁chord	-12029
▁onset	-12030
DT	-12031
acs	-12032
▁Sab	-12033
▁jet	-12034
▁Mand	-12035
▁tape	-12036
▁Brook	-12037
▁firms	-12038
▁prints	-12039
▁Buddhist	-12040
Windows	-12041
▁Nation	-12042
▁graphs	-12043
▁Germans	-12044
dot	-12045
agog	-12046
nals	-12047
large	-12048
▁Cert	-12049
▁mystery	-12050
▁strains	-12051
▁promising	-12052
▁therapeutic	-12053
uy	-12054
rels	-12055
▁Bru	-12056
admin	-12057
rosion	-12058
▁Hyper	-12059
▁Maria	-12060
▁Solution	-12061
▁restored	-12062
shot	-12063
▁Dun	-12064
▁Jean	-12065
▁rats	-12066
Module	-12067
▁Wales	-12068
ulators	-12069
▁Notice	-12070
▁shipping	-12071
▁Wisconsin	-12072
▁optimization	-12073
CF	-12074
uli	-12075
menu	-12076
actic	-12077
▁overs	-12078
▁induced	-12079
▁Leon	-12080
comput	-12081
▁peers	-12082
▁angles	-12083
▁Discuss	-12084
▁Turkish	-12085
▁defects	-12086
▁participating	-12087
▁%}	-12088
Host	-12089
▁vine	-12090
▁League	-12091
▁enabling	-12092
▁illustrated	-12093
hour	-12094
esome	-12095
plugin	-12096
school	-12097
▁tanks	-12098
▁assistant	-12099
ben	-12100
▁Duke	-12101
linear	-12102
▁Always	-12103
▁utilized	-12104
▁switching	-12105
irs	-12106
arma	-12107
icals	-12108
▁masses	-12109
▁protest	-12110
▁viewing	-12111
container	-12112
▁payments	-12113
▁parliament	-12114
▁NG	-12115
aton	-12116
▁wrap	-12117
claimed	-12118
▁Romans	-12119
▁rating	-12120
▁Stephen	-12121
▁antibodies	-12122
▁discussing	-12123
nea	-12124
▁NY	-12125
Link	-12126
ocent	-12127
▁Carbon	-12128
hentication	-12129
▁irrigation	-12130
▁computation	-12131
▁investments	-12132
ля	-12133
▁Aqu	-12134
▁moder	-12135
▁circuits	-12136
▁interfere	-12137
▁realistic	-12138
▁conjunction	-12139
▁distinguished	-12140
▁(!	-12141
▁aver	-12142
ropriate	-12143
▁moments	-12144
eros	-12145
▁===	-12146
ervlet	-12147
Binding	-12148
▁Period	-12149
▁purely	-12150
▁ruling	-12151
▁automated	-12152
▁surveillance	-12153
lat	-12154
▁VM	-12155
black	-12156
update	-12157
▁rises	-12158
▁destro	-12159
▁railroad	-12160
▁somebody	-12161
▁arrangement	-12162
▁straightforward	-12163
]);	-12164
asa	-12165
jpg	-12166
▁oct	-12167
adequ	-12168
upiter	-12169
Command	-12170
▁Edition	-12171
▁accordance	-12172
▁impressive	-12173
▁recommends	-12174
>,	-12175
▁Ger	-12176
▁Behavior	-12177
▁overload	-12178
Cal	-12179
▁Wind	-12180
▁nort	-12181
▁dried	-12182
▁Database	-12183
▁marginal	-12184
▁incredibly	-12185
▁controversial	-12186
▁muc	-12187
▁Give	-12188
▁Chile	-12189
▁Photo	-12190
▁laptop	-12191
▁counties	-12192
▁writings	-12193
pur	-12194
ados	-12195
urday	-12196
Reader	-12197
▁Prior	-12198
replace	-12199
▁campus	-12200
▁extrem	-12201
▁Comment	-12202
▁accompany	-12203
▁pediatric	-12204
▁guaranteed	-12205
lee	-12206
▁Tan	-12207
▁pink	-12208
▁artistic	-12209
▁workshop	-12210
▁Republican	-12211
▁conservative	-12212
ynt	-12213
▁unto	-12214
ricane	-12215
▁canon	-12216
▁genuine	-12217
▁literal	-12218
▁storing	-12219
▁globally	-12220
▁triggers	-12221
▁hasn	-12222
imedia	-12223
strong	-12224
▁lunch	-12225
▁Miller	-12226
▁pulled	-12227
▁solely	-12228
▁Patients	-12229
▁segments	-12230
eem	-12231
▁Kim	-12232
Custom	-12233
estone	-12234
atories	-12235
▁cheese	-12236
ensively	-12237
location	-12238
▁allergy	-12239
▁Response	-12240
▁mechanics	-12241
▁selecting	-12242
PP	-12243
Users	-12244
▁pole	-12245
akespe	-12246
▁Captain	-12247
▁Quality	-12248
▁restart	-12249
▁worried	-12250
▁healthier	-12251
▁diagnostic	-12252
▁>=	-12253
pson	-12254
▁Fat	-12255
▁Greg	-12256
▁hill	-12257
▁Imper	-12258
▁grams	-12259
▁locate	-12260
stration	-12261
▁Missouri	-12262
Ass	-12263
ERS	-12264
bus	-12265
omon	-12266
cerpt	-12267
▁Tele	-12268
agonal	-12269
ialize	-12270
▁athletes	-12271
▁deployed	-12272
▁highlights	-12273
▁publications	-12274
aine	-12275
▁Bio	-12276
inent	-12277
▁Load	-12278
▁Marg	-12279
▁momentum	-12280
▁reservoir	-12281
▁telephone	-12282
Our	-12283
▁AN	-12284
pres	-12285
eling	-12286
storm	-12287
▁ride	-12288
▁femin	-12289
▁Afghan	-12290
▁Virtual	-12291
▁finance	-12292
▁injured	-12293
▁notable	-12294
▁unclear	-12295
▁declined	-12296
▁prospect	-12297
found	-12298
▁chip	-12299
icting	-12300
▁Davis	-12301
▁newer	-12302
modules	-12303
▁satisfy	-12304
▁schemes	-12305
EST	-12306
▁nu	-12307
icker	-12308
▁pest	-12309
ternoon	-12310
▁viable	-12311
▁inverse	-12312
thal	-12313
izard	-12314
▁gains	-12315
ignment	-12316
▁Sweden	-12317
▁quoted	-12318
▁failing	-12319
▁limiting	-12320
▁compliance	-12321
Min	-12322
>();	-12323
▁eleg	-12324
isphere	-12325
▁rememb	-12326
▁exclusively	-12327
eav	-12328
▁PRO	-12329
▁crust	-12330
▁parks	-12331
▁frozen	-12332
▁steady	-12333
▁overflow	-12334
▁→	-12335
tics	-12336
owners	-12337
▁Block	-12338
▁fetch	-12339
▁verse	-12340
quarters	-12341
▁mercury	-12342
▁spreads	-12343
.[	-12344
oen	-12345
Edit	-12346
▁sake	-12347
▁Parents	-12348
▁Protocol	-12349
inth	-12350
▁Astron	-12351
▁clause	-12352
ilateral	-12353
▁defeated	-12354
▁digestive	-12355
▁developmental	-12356
▁Sac	-12357
▁WHO	-12358
atoes	-12359
▁spir	-12360
▁hunger	-12361
▁extinction	-12362
May	-12363
▁ho	-12364
▁Benef	-12365
▁cloth	-12366
▁Machine	-12367
▁trivial	-12368
ATA	-12369
▁Ban	-12370
flies	-12371
▁Chap	-12372
▁Nazi	-12373
▁Choose	-12374
▁undergo	-12375
▁striking	-12376
▁primitive	-12377
▁rendering	-12378
del	-12379
ova	-12380
▁MP	-12381
▁SV	-12382
Writ	-12383
amic	-12384
▁kin	-12385
▁Belg	-12386
▁Team	-12387
▁bark	-12388
▁Analy	-12389
▁Lower	-12390
▁Years	-12391
▁wound	-12392
akespeare	-12393
▁educated	-12394
▁adaptation	-12395
ViewController	-12396
▁Bow	-12397
▁Ele	-12398
▁Sri	-12399
▁Hunt	-12400
▁surely	-12401
▁Species	-12402
▁Wednesday	-12403
▁”	-12404
ITY	-12405
stru	-12406
uilt	-12407
oning	-12408
▁Option	-12409
▁galaxy	-12410
▁portions	-12411
▁contamination	-12412
▁fee	-12413
ishers	-12414
▁Input	-12415
▁await	-12416
support	-12417
▁Austria	-12418
▁predators	-12419
isa	-12420
join	-12421
▁dataset	-12422
▁admitted	-12423
▁dominated	-12424
▁historian	-12425
▁historians	-12426
vae	-12427
▁invited	-12428
▁arranged	-12429
▁hierarchy	-12430
mes	-12431
▁SA	-12432
▁Lic	-12433
Hello	-12434
esium	-12435
▁loyal	-12436
▁bladder	-12437
▁founder	-12438
▁Evolution	-12439
gi	-12440
ctu	-12441
▁%>	-12442
▁})	-12443
Oper	-12444
neum	-12445
▁wax	-12446
ldots	-12447
▁loops	-12448
▁strip	-12449
▁essays	-12450
▁golden	-12451
igration	-12452
▁anthrop	-12453
▁chapters	-12454
▁situated	-12455
./	-12456
▁Nap	-12457
▁Drag	-12458
▁guns	-12459
▁Broad	-12460
▁Obviously	-12461
▁membership	-12462
yo	-12463
Rect	-12464
anna	-12465
eous	-12466
orce	-12467
▁Cut	-12468
▁Essay	-12469
▁Editor	-12470
olecular	-12471
▁descriptions	-12472
save	-12473
▁bron	-12474
imated	-12475
▁weird	-12476
▁Living	-12477
▁planes	-12478
internal	-12479
▁counterpart	-12480
▁intersection	-12481
km	-12482
pot	-12483
▁(*	-12484
▁bite	-12485
▁fits	-12486
▁safer	-12487
▁lateral	-12488
▁interfaces	-12489
dy	-12490
good	-12491
▁Tax	-12492
marks	-12493
ifacts	-12494
rology	-12495
▁dehyd	-12496
▁transp	-12497
ognition	-12498
▁portray	-12499
rying	-12500
▁guides	-12501
▁rocket	-12502
▁archive	-12503
▁catalog	-12504
▁territories	-12505
▁Rus	-12506
▁fate	-12507
▁torn	-12508
lessly	-12509
ushing	-12510
▁condem	-12511
▁council	-12512
effective	-12513
▁retrieve	-12514
▁Indigenous	-12515
▁configured	-12516
cker	-12517
iser	-12518
▁Hur	-12519
ourage	-12520
▁unemployment	-12521
PF	-12522
heres	-12523
▁Staff	-12524
▁wires	-12525
username	-12526
URE	-12527
Height	-12528
▁Freedom	-12529
▁Electric	-12530
▁navigate	-12531
▁comparable	-12532
BD	-12533
auc	-12534
via	-12535
▁Ball	-12536
▁Burn	-12537
▁spine	-12538
▁phases	-12539
ractions	-12540
▁gathering	-12541
Top	-12542
▁bes	-12543
redict	-12544
▁packet	-12545
▁explored	-12546
▁relatives	-12547
▁trail	-12548
ipation	-12549
▁swallow	-12550
▁attracted	-12551
▁overwhelming	-12552
whe	-12553
▁'/	-12554
▁ls	-12555
iley	-12556
itic	-12557
aceut	-12558
income	-12559
▁carbohydrates	-12560
ws	-12561
yan	-12562
▁Software	-12563
☐☐	-12564
owa	-12565
stop	-12566
▁Sex	-12567
▁sql	-12568
▁Hong	-12569
▁worn	-12570
rophic	-12571
tension	-12572
▁tourism	-12573
▁pandemic	-12574
▁progressive	-12575
Ge	-12576
INE	-12577
pay	-12578
▁Eu	-12579
▁Gi	-12580
uble	-12581
▁Sci	-12582
▁React	-12583
▁dress	-12584
entieth	-12585
▁Memory	-12586
▁depict	-12587
▁mentions	-12588
▁°	-12589
edit	-12590
expl	-12591
▁pests	-12592
▁pulse	-12593
▁gentle	-12594
▁Integer	-12595
▁graphic	-12596
▁powered	-12597
▁protects	-12598
▁decreasing	-12599
▁electronics	-12600
)+	-12601
OB	-12602
OK	-12603
Address	-12604
▁deadly	-12605
economic	-12606
▁carrier	-12607
▁flowing	-12608
▁forcing	-12609
▁nursing	-12610
▁tremend	-12611
▁acceptance	-12612
▁immigration	-12613
▁sufficiently	-12614
▁determination	-12615
▁chron	-12616
▁oscill	-12617
▁Country	-12618
▁attachment	-12619
▁intelligent	-12620
,’	-12621
sur	-12622
illy	-12623
▁Size	-12624
▁Along	-12625
▁ensures	-12626
▁combining	-12627
▁Definition	-12628
▁residential	-12629
bet	-12630
estamp	-12631
written	-12632
▁comprehension	-12633
iking	-12634
▁metres	-12635
▁seasons	-12636
▁contexts	-12637
▁flooding	-12638
▁genetics	-12639
Red	-12640
uid	-12641
▁Kat	-12642
▁Row	-12643
▁cha	-12644
▁bench	-12645
writing	-12646
▁padding	-12647
▁reserves	-12648
hr	-12649
sens	-12650
▁cipher	-12651
▁priest	-12652
▁Materials	-12653
▁geographic	-12654
▁newspapers	-12655
▁appointment	-12656
John	-12657
▁Hub	-12658
▁skull	-12659
comfort	-12660
▁Apollo	-12661
▁alleged	-12662
▁formats	-12663
▁sensory	-12664
▁potassium	-12665
Mar	-12666
arium	-12667
ulative	-12668
▁Bridge	-12669
▁fallen	-12670
▁upgrade	-12671
▁vaccination	-12672
osex	-12673
rors	-12674
▁bom	-12675
▁Poll	-12676
itched	-12677
subset	-12678
Container	-12679
▁Recently	-12680
▁simplest	-12681
▁degradation	-12682
Ret	-12683
fers	-12684
otyp	-12685
▁cataly	-12686
▁crystal	-12687
▁Shakespeare	-12688
)))	-12689
Rem	-12690
▁ber	-12691
Right	-12692
▁Ethiop	-12693
▁schema	-12694
▁Centers	-12695
localhost	-12696
uz	-12697
ORT	-12698
▁ly	-12699
fare	-12700
▁Yellow	-12701
▁bundle	-12702
▁occupation	-12703
▁extraordinary	-12704
▁mim	-12705
▁reh	-12706
Order	-12707
▁batch	-12708
▁Saturday	-12709
▁integrate	-12710
▁scheduled	-12711
▁suspected	-12712
▁expedition	-12713
LG	-12714
Pe	-12715
▁э	-12716
docs	-12717
tikz	-12718
▁blo	-12719
▁appet	-12720
▁meets	-12721
▁mobility	-12722
▁indication	-12723
cpp	-12724
osaurs	-12725
▁Newton	-12726
▁voters	-12727
connected	-12728
▁crossing	-12729
▁javascript	-12730
▁Der	-12731
▁ell	-12732
insula	-12733
▁brack	-12734
library	-12735
▁rubber	-12736
▁Exception	-12737
▁fertility	-12738
▁afterwards	-12739
▁GN	-12740
▁Mes	-12741
▁Love	-12742
▁seemingly	-12743
▁DS	-12744
▁apple	-12745
▁intra	-12746
▁straw	-12747
▁Resource	-12748
especially	-12749
▁Published	-12750
pal	-12751
▁Body	-12752
▁dinner	-12753
▁Denmark	-12754
▁antenna	-12755
▁pushing	-12756
▁neighbors	-12757
▁celebration	-12758
alg	-12759
▁Ye	-12760
Block	-12761
▁isot	-12762
▁alike	-12763
ikipedia	-12764
▁Overall	-12765
▁washing	-12766
▁Movement	-12767
▁permissions	-12768
▁investigated	-12769
aug	-12770
▁deals	-12771
Document	-12772
ividually	-12773
▁composite	-12774
▁assessments	-12775
▁organisation	-12776
▁EM	-12777
iors	-12778
▁insu	-12779
▁pupp	-12780
▁Files	-12781
▁neighbour	-12782
▁Psychology	-12783
▁infectious	-12784
▁preservation	-12785
▁substantially	-12786
Car	-12787
unks	-12788
▁yard	-12789
▁behalf	-12790
▁encomp	-12791
▁Methods	-12792
▁blocked	-12793
▁arrested	-12794
▁criticism	-12795
▁feat	-12796
▁semic	-12797
▁CREATE	-12798
▁catast	-12799
▁phrases	-12800
▁relates	-12801
▁followers	-12802
.(	-12803
ockets	-12804
▁enact	-12805
options	-12806
▁TB	-12807
blog	-12808
mented	-12809
▁Notes	-12810
▁yeast	-12811
category	-12812
▁headers	-12813
▁satisfied	-12814
▁quantitative	-12815
Sm	-12816
▁Hi	-12817
alin	-12818
copy	-12819
prop	-12820
▁skip	-12821
▁secre	-12822
▁Nothing	-12823
ACE	-12824
ona	-12825
▁lect	-12826
▁ultr	-12827
itives	-12828
▁Domin	-12829
▁bills	-12830
▁Mechan	-12831
▁rescue	-12832
▁Depression	-12833
fa	-12834
vc	-12835
▁Ky	-12836
▁Ra	-12837
▁Clark	-12838
▁Month	-12839
▁fluids	-12840
▁upgrad	-12841
▁corresponds	-12842
aki	-12843
▁pap	-12844
▁kings	-12845
▁copied	-12846
▁garbage	-12847
▁extending	-12848
▁Abs	-12849
▁Live	-12850
▁Samuel	-12851
▁purple	-12852
▁battles	-12853
▁Description	-12854
▁Ze	-12855
aten	-12856
ixed	-12857
uese	-12858
debug	-12859
Changed	-12860
instein	-12861
▁spelling	-12862
▁acknowledge	-12863
Unit	-12864
cked	-12865
▁Balt	-12866
ailing	-12867
▁Grade	-12868
▁Polish	-12869
▁basics	-12870
▁reproduce	-12871
▁synthesis	-12872
▁prox	-12873
orship	-12874
▁flesh	-12875
▁plots	-12876
▁Mission	-12877
condition	-12878
▁alignment	-12879
orse	-12880
ulas	-12881
▁SET	-12882
▁Deep	-12883
▁Stream	-12884
▁enters	-12885
▁mixing	-12886
▁plural	-12887
▁conducting	-12888
INT	-12889
▁Inv	-12890
▁Mit	-12891
Gener	-12892
equiv	-12893
▁expend	-12894
▁bottles	-12895
▁pathways	-12896
generation	-12897
▁{%	-12898
▁asset	-12899
▁weren	-12900
Adapter	-12901
diction	-12902
La	-12903
ko	-12904
ummy	-12905
shore	-12906
▁unre	-12907
▁supre	-12908
▁organize	-12909
▁Executive	-12910
▁Everything	-12911
htm	-12912
ipt	-12913
engu	-12914
super	-12915
▁snap	-12916
header	-12917
incial	-12918
teenth	-12919
▁Stone	-12920
▁conce	-12921
▁illum	-12922
▁piano	-12923
▁tired	-12924
groupId	-12925
▁pixels	-12926
graduate	-12927
▁Effects	-12928
▁severely	-12929
▁anonymous	-12930
▁necessity	-12931
▁influential	-12932
wiki	-12933
▁Nep	-12934
▁Tok	-12935
▁Plot	-12936
Product	-12937
▁mosquito	-12938
▁exclusive	-12939
▁prototype	-12940
▁advertising	-12941
}(\	-12942
▁Cop	-12943
▁coral	-12944
▁vapor	-12945
▁Hamilton	-12946
▁accidents	-12947
=(	-12948
Ne	-12949
nia	-12950
▁Raj	-12951
▁Harr	-12952
▁hits	-12953
▁mesh	-12954
angles	-12955
▁Alternatively	-12956
SO	-12957
▁fees	-12958
▁Census	-12959
fn	-12960
▁Past	-12961
roleum	-12962
▁lunar	-12963
▁Message	-12964
▁winning	-12965
▁considerably	-12966
Dec	-12967
Foo	-12968
▁mant	-12969
▁socio	-12970
▁rolling	-12971
▁Archived	-12972
▁Multiple	-12973
▁afternoon	-12974
▁collision	-12975
▁affordable	-12976
▁meditation	-12977
▁administered	-12978
CV	-12979
ulse	-12980
ordan	-12981
▁Save	-12982
▁syll	-12983
▁fifty	-12984
▁typed	-12985
▁Arthur	-12986
▁Success	-12987
▁silicon	-12988
▁teaches	-12989
▁GE	-12990
velt	-12991
▁Cru	-12992
sized	-12993
▁oxid	-12994
▁Determ	-12995
ithmetic	-12996
▁dispute	-12997
▁possession	-12998
▁preference	-12999
*.	-13000
/(	-13001
▁Pa	-13002
anol	-13003
eman	-13004
yard	-13005
▁cel	-13006
activ	-13007
▁Auto	-13008
▁Snow	-13009
▁eigen	-13010
friendly	-13011
▁drainage	-13012
▁belonging	-13013
ACK	-13014
▁pm	-13015
▁Ved	-13016
▁Radio	-13017
▁casual	-13018
▁magnet	-13019
▁rotate	-13020
▁liberty	-13021
▁astronaut	-13022
▁extraction	-13023
]$	-13024
▁gates	-13025
▁Mental	-13026
▁indoor	-13027
▁publicly	-13028
▁legitimate	-13029
▁Amb	-13030
▁tomb	-13031
arians	-13032
▁brill	-13033
▁whilst	-13034
ergarten	-13035
▁emperor	-13036
▁reserve	-13037
▁variants	-13038
YPE	-13039
Tube	-13040
orious	-13041
▁abroad	-13042
▁Manager	-13043
▁asbestos	-13044
▁equilibrium	-13045
▁prescription	-13046
▁Ho	-13047
ucky	-13048
unct	-13049
▁ISO	-13050
heses	-13051
▁Harry	-13052
▁genus	-13053
▁feather	-13054
▁meanings	-13055
▁highlighted	-13056
}[	-13057
Hel	-13058
▁HP	-13059
▁gel	-13060
▁census	-13061
▁guitar	-13062
▁sustained	-13063
▁deployment	-13064
▁distinctive	-13065
hess	-13066
inus	-13067
asures	-13068
▁Grant	-13069
inology	-13070
▁inline	-13071
▁terrible	-13072
▁motivated	-13073
▁conversations	-13074
▁Emb	-13075
images	-13076
▁wages	-13077
▁Almost	-13078
▁Intellig	-13079
▁shoulder	-13080
Configuration	-13081
▁explanations	-13082
▁LE	-13083
gres	-13084
racks	-13085
enders	-13086
▁Dougl	-13087
healthy	-13088
▁Posted	-13089
Abstract	-13090
▁inadequ	-13091
▁originated	-13092
▁discoveries	-13093
UG	-13094
▁Tib	-13095
▁Pear	-13096
▁freed	-13097
Program	-13098
▁relies	-13099
▁shortly	-13100
▁multiply	-13101
▁modification	-13102
Ut	-13103
ес	-13104
OME	-13105
fat	-13106
igo	-13107
▁Cro	-13108
▁beds	-13109
▁rear	-13110
stable	-13111
▁Alice	-13112
▁loans	-13113
▁snipp	-13114
▁pressing	-13115
▁predictions	-13116
uri	-13117
ugar	-13118
▁cum	-13119
inton	-13120
▁expon	-13121
▁epidem	-13122
ographer	-13123
▁regression	-13124
▁satellites	-13125
▁Educational	-13126
▁individually	-13127
▁cin	-13128
▁heal	-13129
▁imped	-13130
▁tempt	-13131
▁tubes	-13132
▁Military	-13133
▁antibiotic	-13134
Equ	-13135
▁Gir	-13136
Panel	-13137
▁seiz	-13138
filled	-13139
▁chains	-13140
▁anybody	-13141
▁browsers	-13142
▁imperial	-13143
▁Transport	-13144
▁projected	-13145
▁indicators	-13146
bash	-13147
olly	-13148
push	-13149
▁Arc	-13150
amation	-13151
because	-13152
children	-13153
▁licensed	-13154
▁intensive	-13155
▁<?	-13156
away	-13157
▁MIT	-13158
human	-13159
oultry	-13160
▁radar	-13161
ighters	-13162
▁timber	-13163
▁Particip	-13164
▁epidemic	-13165
▁GL	-13166
worm	-13167
▁Kit	-13168
▁Jane	-13169
iversary	-13170
▁Testing	-13171
▁squares	-13172
DC	-13173
she	-13174
▁{"	-13175
lied	-13176
▁Boy	-13177
empty	-13178
▁fleet	-13179
▁unpre	-13180
▁damages	-13181
▁longest	-13182
▁announce	-13183
▁Typically	-13184
▁extracted	-13185
SC	-13186
▁Cos	-13187
onics	-13188
▁Roose	-13189
▁dozen	-13190
▁Primary	-13191
▁methane	-13192
▁promotes	-13193
▁Mountains	-13194
▁nineteenth	-13195
▁ps	-13196
emor	-13197
Stack	-13198
▁pixel	-13199
▁Vector	-13200
▁gradient	-13201
Pack	-13202
adic	-13203
appy	-13204
▁Comb	-13205
Update	-13206
▁recur	-13207
▁raises	-13208
▁Reserve	-13209
▁lighter	-13210
▁retreat	-13211
▁revision	-13212
▁×	-13213
Off	-13214
▁VI	-13215
▁Tai	-13216
▁awk	-13217
Ident	-13218
▁anat	-13219
▁trap	-13220
▁dreams	-13221
▁emerge	-13222
▁activated	-13223
▁accordingly	-13224
../	-13225
▁Relations	-13226
▁descendants	-13227
ARE	-13228
ROR	-13229
depth	-13230
▁deck	-13231
▁numb	-13232
vasive	-13233
Position	-13234
▁entreprene	-13235
▁Corporation	-13236
▁multiplication	-13237
aza	-13238
sys	-13239
▁"\	-13240
▁Allow	-13241
▁Target	-13242
▁Treaty	-13243
▁storms	-13244
▁warmer	-13245
▁politicians	-13246
▁efficacy	-13247
▁Throughout	-13248
IZ	-13249
UB	-13250
^*	-13251
Book	-13252
Left	-13253
idae	-13254
▁len	-13255
rison	-13256
▁exempl	-13257
▁labeled	-13258
▁Exercise	-13259
▁diagnose	-13260
▁receiver	-13261
▁Industrial	-13262
}}$	-13263
rish	-13264
▁bor	-13265
pling	-13266
▁Cass	-13267
thening	-13268
▁figured	-13269
▁hazards	-13270
▁Knowledge	-13271
▁altogether	-13272
▁−	-13273
▁rab	-13274
Dialog	-13275
acular	-13276
▁Torah	-13277
▁norms	-13278
▁Capital	-13279
▁rebuild	-13280
▁precipitation	-13281
▁GPS	-13282
omical	-13283
▁vertex	-13284
▁skilled	-13285
▁Everyone	-13286
▁Personal	-13287
▁releases	-13288
▁volcanic	-13289
▁desirable	-13290
▁encourages	-13291
▁introducing	-13292
по	-13293
rell	-13294
▁jav	-13295
Press	-13296
burgh	-13297
▁PMID	-13298
levant	-13299
▁sword	-13300
▁shifts	-13301
▁Prevent	-13302
▁cheaper	-13303
▁emission	-13304
▁contributes	-13305
▁Item	-13306
▁fraud	-13307
▁races	-13308
▁symptom	-13309
▁artifacts	-13310
operatorname	-13311
oj	-13312
ARY	-13313
Max	-13314
▁VS	-13315
idel	-13316
rend	-13317
▁Bor	-13318
elson	-13319
makers	-13320
▁bands	-13321
uncture	-13322
▁contacts	-13323
▁forgotten	-13324
▁Specifically	-13325
▁participated	-13326
/\	-13327
tab	-13328
▁Bah	-13329
father	-13330
▁unders	-13331
▁dangers	-13332
▁blocking	-13333
▁coefficient	-13334
eld	-13335
aund	-13336
▁Dark	-13337
defined	-13338
heastern	-13339
▁eligible	-13340
▁invisible	-13341
DO	-13342
▁CC	-13343
FILE	-13344
▁Box	-13345
▁nas	-13346
phones	-13347
▁Jupiter	-13348
▁gaining	-13349
▁secular	-13350
▁investors	-13351
▁recovered	-13352
else	-13353
orney	-13354
▁[...]	-13355
olutions	-13356
dam	-13357
▁angry	-13358
▁typing	-13359
▁fragments	-13360
▁genetically	-13361
▁unfortunately	-13362
Num	-13363
Sec	-13364
▁IC	-13365
weet	-13366
itored	-13367
opathy	-13368
▁seeks	-13369
▁Credit	-13370
▁prophe	-13371
umerable	-13372
▁computed	-13373
cler	-13374
▁TCP	-13375
apper	-13376
ynchron	-13377
▁router	-13378
▁Population	-13379
▁methodology	-13380
▁reproduction	-13381
}+	-13382
gre	-13383
uru	-13384
ilty	-13385
▁Tools	-13386
▁artic	-13387
▁throne	-13388
▁briefly	-13389
▁clarify	-13390
▁Amendment	-13391
▁Roosevelt	-13392
▁hazardous	-13393
▁variability	-13394
▁ip	-13395
▁coh	-13396
▁Song	-13397
▁toys	-13398
handle	-13399
▁imply	-13400
▁Buddhism	-13401
▁traveled	-13402
}-	-13403
AGE	-13404
jax	-13405
bird	-13406
▁Rod	-13407
▁jar	-13408
▁gifts	-13409
▁talked	-13410
▁besides	-13411
▁philosophical	-13412
uto	-13413
grim	-13414
inea	-13415
odge	-13416
peat	-13417
unes	-13418
▁Pap	-13419
▁Syn	-13420
▁aligned	-13421
▁Victoria	-13422
▁converting	-13423
▁discomfort	-13424
These	-13425
standard	-13426
▁Indiana	-13427
▁Therapy	-13428
something	-13429
TA	-13430
mi	-13431
Core	-13432
appa	-13433
zens	-13434
▁api	-13435
▁про	-13436
▁Kong	-13437
Change	-13438
compat	-13439
▁Stage	-13440
▁careg	-13441
▁ignor	-13442
▁Anyone	-13443
▁Archae	-13444
▁pathogens	-13445
▁activation	-13446
area	-13447
inced	-13448
▁Stop	-13449
▁murd	-13450
achment	-13451
inflamm	-13452
▁Golden	-13453
▁voices	-13454
▁aesthetic	-13455
▁incredible	-13456
akh	-13457
Null	-13458
orie	-13459
▁McG	-13460
▁Tro	-13461
▁robots	-13462
▁damaging	-13463
▁discusses	-13464
▁EN	-13465
eland	-13466
▁pine	-13467
▁Urban	-13468
▁fired	-13469
▁patri	-13470
▁absent	-13471
▁pollen	-13472
▁diarrhea	-13473
▁responded	-13474
bot	-13475
olas	-13476
▁Fox	-13477
▁SSL	-13478
iotic	-13479
▁fool	-13480
▁Creative	-13481
▁breakfast	-13482
▁observing	-13483
▁departments	-13484
▁directories	-13485
▁Alt	-13486
▁pret	-13487
abetic	-13488
Session	-13489
▁commod	-13490
▁movies	-13491
▁Request	-13492
▁dentist	-13493
▁hygiene	-13494
lings	-13495
▁Angl	-13496
▁incons	-13497
▁median	-13498
▁crossed	-13499
▁Gh	-13500
hips	-13501
idge	-13502
▁Hart	-13503
▁hate	-13504
▁mart	-13505
▁probe	-13506
▁praise	-13507
▁shopping	-13508
▁coordination	-13509
.$	-13510
was	-13511
ylon	-13512
apply	-13513
dominal	-13514
▁harmony	-13515
fin	-13516
▁Mu	-13517
atar	-13518
▁Moh	-13519
▁rum	-13520
ioned	-13521
▁cope	-13522
feeding	-13523
▁endeav	-13524
▁larvae	-13525
▁Defense	-13526
▁expense	-13527
=$	-13528
▁Pra	-13529
▁shells	-13530
etheless	-13531
▁Subject	-13532
▁vertices	-13533
▁initiated	-13534
▁т	-13535
▁Bol	-13536
erred	-13537
double	-13538
▁Facts	-13539
▁overt	-13540
▁realm	-13541
berries	-13542
session	-13543
▁assumes	-13544
▁examining	-13545
UL	-13546
▁Venus	-13547
▁Malays	-13548
▁warrant	-13549
▁filename	-13550
▁receptors	-13551
▁historically	-13552
▁specification	-13553
>.	-13554
ки	-13555
othy	-13556
▁Doc	-13557
rator	-13558
▁fart	-13559
▁caffe	-13560
▁farmer	-13561
▁alternate	-13562
▁evaluating	-13563
▁ingredient	-13564
)"	-13565
▁Fem	-13566
Store	-13567
▁dialect	-13568
▁designers	-13569
▁revolutionary	-13570
full	-13571
▁gem	-13572
▁jew	-13573
abama	-13574
▁Cape	-13575
▁Winter	-13576
▁Location	-13577
▁opponent	-13578
▁residence	-13579
▁contradict	-13580
▁pronounced	-13581
rw	-13582
enh	-13583
flu	-13584
Args	-13585
atre	-13586
▁bay	-13587
ounding	-13588
secution	-13589
▁Members	-13590
▁watched	-13591
▁vomiting	-13592
▁furniture	-13593
▁Portuguese	-13594
Rel	-13595
▁ric	-13596
iatric	-13597
▁balls	-13598
▁blast	-13599
▁speaks	-13600
▁testim	-13601
▁algebraic	-13602
appropriate	-13603
GET	-13604
gged	-13605
▁ties	-13606
SELECT	-13607
ductor	-13608
▁Swift	-13609
General	-13610
▁logged	-13611
▁prediction	-13612
cost	-13613
drop	-13614
ffff	-13615
osphere	-13616
▁overse	-13617
omorphism	-13618
▁packaging	-13619
▁structured	-13620
▁AL	-13621
▁dw	-13622
risk	-13623
▁Hun	-13624
▁sau	-13625
▁microbes	-13626
▁sacrific	-13627
▁Authority	-13628
▁considerations	-13629
arp	-13630
four	-13631
common	-13632
▁wells	-13633
▁Record	-13634
▁relieve	-13635
▁deterior	-13636
Enc	-13637
▁sq	-13638
ista	-13639
atern	-13640
inian	-13641
imeter	-13642
▁affil	-13643
▁brick	-13644
▁exert	-13645
▁steep	-13646
induced	-13647
▁costly	-13648
▁Exchange	-13649
▁Register	-13650
▁monument	-13651
▁pointers	-13652
▁promised	-13653
▁promoted	-13654
efficients	-13655
▁networking	-13656
angers	-13657
racted	-13658
▁nurse	-13659
▁Member	-13660
▁Random	-13661
▁aluminum	-13662
▁prevalent	-13663
▁stimulate	-13664
▁compassion	-13665
▁eliminated	-13666
▁mainstream	-13667
▁Trib	-13668
iciency	-13669
▁agenda	-13670
▁Genesis	-13671
▁casting	-13672
▁refriger	-13673
▁surviving	-13674
▁Declaration	-13675
FR	-13676
meta	-13677
▁mol	-13678
Title	-13679
vised	-13680
▁Nort	-13681
▁Castle	-13682
▁nerves	-13683
▁preferences	-13684
iac	-13685
held	-13686
onto	-13687
▁Nan	-13688
▁jaw	-13689
▁Ruby	-13690
odynam	-13691
▁melan	-13692
▁Summer	-13693
▁makers	-13694
gression	-13695
▁patches	-13696
▁penalty	-13697
▁profits	-13698
▁Mathematic	-13699
:"	-13700
▁gy	-13701
urred	-13702
▁bats	-13703
▁beet	-13704
▁trim	-13705
▁hearts	-13706
▁titled	-13707
▁discrete	-13708
▁peripher	-13709
="#	-13710
chy	-13711
esc	-13712
▁Ross	-13713
▁milit	-13714
▁headed	-13715
▁widget	-13716
▁colleges	-13717
▁periodic	-13718
▁corruption	-13719
▁evac	-13720
▁Beyond	-13721
▁Actually	-13722
▁darkness	-13723
▁machinery	-13724
▁flies	-13725
▁snake	-13726
▁stiff	-13727
▁Fisher	-13728
▁telescope	-13729
FP	-13730
Str	-13731
▁Ale	-13732
▁bip	-13733
iolet	-13734
small	-13735
▁Cham	-13736
▁Sant	-13737
Status	-13738
▁glory	-13739
▁pride	-13740
▁sperm	-13741
▁excluded	-13742
▁convinced	-13743
▁incidents	-13744
▁remainder	-13745
▁),	-13746
▁).	-13747
▁env	-13748
ammad	-13749
amous	-13750
vance	-13751
▁Viol	-13752
▁Frequ	-13753
▁joining	-13754
background	-13755
ti	-13756
help	-13757
▁MVC	-13758
adays	-13759
▁pert	-13760
Header	-13761
▁ruler	-13762
▁intact	-13763
ibration	-13764
▁overlap	-13765
▁Archives	-13766
▁passwords	-13767
FOR	-13768
both	-13769
speed	-13770
▁hind	-13771
▁Albert	-13772
▁formally	-13773
▁Implement	-13774
▁enterprise	-13775
▁NT	-13776
▁Si	-13777
▁Sud	-13778
Omega	-13779
▁tear	-13780
▁grave	-13781
▁toile	-13782
▁foster	-13783
▁thrive	-13784
▁Imperial	-13785
▁filesystem	-13786
▁perspectives	-13787
▁institutional	-13788
vo	-13789
▁$("	-13790
cular	-13791
▁penc	-13792
▁Prize	-13793
▁chips	-13794
▁bounds	-13795
▁virtue	-13796
▁Context	-13797
▁combust	-13798
▁expenses	-13799
▁freshwater	-13800
▁acceleration	-13801
xi	-13802
cha	-13803
▁Chen	-13804
▁beer	-13805
▁fled	-13806
▁Commer	-13807
▁bullet	-13808
▁cooked	-13809
▁lesser	-13810
▁pressed	-13811
▁Political	-13812
▁monitored	-13813
▁pressures	-13814
▁classrooms	-13815
▁completing	-13816
SD	-13817
egu	-13818
▁ic	-13819
arth	-13820
▁gay	-13821
▁hub	-13822
▁plt	-13823
proof	-13824
▁Hash	-13825
▁epit	-13826
▁Store	-13827
▁Express	-13828
▁corrupt	-13829
▁imposed	-13830
▁keyword	-13831
▁contracts	-13832
▁placement	-13833
)=\	-13834
▁SH	-13835
oxic	-13836
tail	-13837
▁Mun	-13838
▁tech	-13839
▁Range	-13840
▁Stock	-13841
▁adject	-13842
▁autumn	-13843
▁nobody	-13844
▁horizon	-13845
▁staying	-13846
▁wealthy	-13847
▁disposal	-13848
▁galaxies	-13849
▁dy	-13850
▁Gil	-13851
▁Iowa	-13852
▁draws	-13853
▁Adding	-13854
▁deemed	-13855
▁suited	-13856
▁unions	-13857
▁cookies	-13858
▁Scottish	-13859
▁technically	-13860
MENT	-13861
▁Tab	-13862
▁Bapt	-13863
▁Cart	-13864
erness	-13865
▁lenses	-13866
restrial	-13867
▁YouTube	-13868
▁economies	-13869
▁offspring	-13870
▁substrate	-13871
▁targeting	-13872
UID	-13873
lob	-13874
Supp	-13875
tein	-13876
▁toxins	-13877
▁pharmac	-13878
▁fundament	-13879
▁liability	-13880
▁extensions	-13881
▁assignments	-13882
▁representations	-13883
lies	-13884
▁Publ	-13885
▁heated	-13886
▁copying	-13887
▁Historic	-13888
}=\	-13889
▁''	-13890
tree	-13891
third	-13892
▁dirt	-13893
▁Diego	-13894
▁Games	-13895
▁Tennes	-13896
▁gravit	-13897
▁singing	-13898
▁drawings	-13899
▁preschool	-13900
vm	-13901
may	-13902
▁idi	-13903
items	-13904
▁cerv	-13905
▁coin	-13906
▁reply	-13907
▁empower	-13908
▁organisations	-13909
▁lig	-13910
▁sid	-13911
▁quiz	-13912
icides	-13913
▁Plants	-13914
▁customs	-13915
▁strikes	-13916
▁informal	-13917
▁matrices	-13918
▁recommendation	-13919
▁cd	-13920
▁Tips	-13921
▁Wolf	-13922
▁dated	-13923
▁Alcohol	-13924
▁coating	-13925
▁Chemical	-13926
▁biblical	-13927
▁inheritance	-13928
IME	-13929
abc	-13930
oard	-13931
▁BBC	-13932
▁bore	-13933
define	-13934
▁coins	-13935
▁depri	-13936
▁trait	-13937
▁Healthy	-13938
▁Imagine	-13939
▁Teacher	-13940
▁Problems	-13941
omed	-13942
token	-13943
▁infra	-13944
onomous	-13945
▁Address	-13946
▁immense	-13947
▁pathway	-13948
▁ceremony	-13949
▁depicted	-13950
▁accessing	-13951
▁constitute	-13952
▁architectural	-13953
▁ib	-13954
plan	-13955
▁duct	-13956
▁Institutions	-13957
▁presidential	-13958
aml	-13959
▁beef	-13960
▁bonus	-13961
▁Default	-13962
▁appetite	-13963
▁centered	-13964
▁downloaded	-13965
asi	-13966
Servlet	-13967
▁Gospel	-13968
▁Market	-13969
▁castle	-13970
▁warnings	-13971
▁mitochond	-13972
LY	-13973
Su	-13974
alo	-13975
▁Eric	-13976
▁Appro	-13977
perature	-13978
▁portable	-13979
▁projection	-13980
ANT	-13981
▁SW	-13982
none	-13983
▁INS	-13984
▁Joh	-13985
▁wed	-13986
▁radi	-13987
▁Share	-13988
▁charts	-13989
▁fusion	-13990
▁adjusted	-13991
▁suppress	-13992
Fe	-13993
▁Ages	-13994
▁soap	-13995
▁basin	-13996
▁likes	-13997
▁seats	-13998
▁Travel	-13999
▁iPhone	-14000
▁dependence	-14001
▁governance	-14002
curs	-14003
send	-14004
river	-14005
govern	-14006
report	-14007
▁Allen	-14008
▁Sound	-14009
▁remed	-14010
▁permits	-14011
▁Sa	-14012
▁equity	-14013
▁Alabama	-14014
▁educate	-14015
▁Cultural	-14016
LP	-14017
kh	-14018
)^{	-14019
▁SN	-14020
eval	-14021
▁gross	-14022
▁locked	-14023
▁tunnel	-14024
▁Lawrence	-14025
▁identifies	-14026
mus	-14027
ods	-14028
▁Plus	-14029
unning	-14030
▁baseline	-14031
▁precious	-14032
▁headaches	-14033
lah	-14034
utf	-14035
▁AIDS	-14036
▁cargo	-14037
▁warri	-14038
interest	-14039
▁perceive	-14040
▁stressed	-14041
▁inspection	-14042
▁remembered	-14043
▁jurisdiction	-14044
▁physiological	-14045
eded	-14046
ulent	-14047
▁Hans	-14048
▁Angular	-14049
▁advised	-14050
▁bounded	-14051
▁retained	-14052
▁Indonesia	-14053
▁li	-14054
mill	-14055
▁Grid	-14056
Execut	-14057
▁guided	-14058
▁Persian	-14059
▁peaceful	-14060
▁profiles	-14061
▁passengers	-14062
ivo	-14063
eton	-14064
uting	-14065
▁dwar	-14066
▁Simon	-14067
▁stays	-14068
▁readings	-14069
▁inflammatory	-14070
bled	-14071
▁Qur	-14072
Runtime	-14073
oriented	-14074
▁prolonged	-14075
▁Fortunately	-14076
)}{	-14077
tesy	-14078
▁melt	-14079
▁Sample	-14080
▁continually	-14081
▁negotiations	-14082
Pub	-14083
HTML	-14084
▁Rose	-14085
▁annoy	-14086
▁Double	-14087
▁Hawaii	-14088
▁Creating	-14089
▁stopping	-14090
▁religions	-14091
▁modifications	-14092
lyn	-14093
zech	-14094
▁Hyp	-14095
▁Magn	-14096
▁Rule	-14097
▁Better	-14098
▁actors	-14099
▁Assuming	-14100
▁performs	-14101
▁troubles	-14102
wo	-14103
ITH	-14104
dll	-14105
▁pd	-14106
media	-14107
▁thrust	-14108
▁letting	-14109
▁polymer	-14110
▁pollutants	-14111
▁reliability	-14112
▁demonstration	-14113
▁Ul	-14114
▁adul	-14115
▁Tibet	-14116
▁boats	-14117
▁kidneys	-14118
▁designer	-14119
▁concentrate	-14120
▁manufactured	-14121
ру	-14122
▁HE	-14123
ante	-14124
mind	-14125
▁alb	-14126
venue	-14127
▁Whit	-14128
▁deny	-14129
▁hepat	-14130
lastname	-14131
▁outdoors	-14132
▁Southeast	-14133
▁illustrates	-14134
▁GC	-14135
artz	-14136
five	-14137
▁sink	-14138
groups	-14139
▁retire	-14140
▁inquiry	-14141
▁nearest	-14142
dependent	-14143
▁everybody	-14144
▁Eventually	-14145
▁Ms	-14146
▁Surg	-14147
▁proc	-14148
wealth	-14149
▁clues	-14150
▁Argent	-14151
▁Client	-14152
▁provinces	-14153
▁Afghanistan	-14154
▁dynamically	-14155
Last	-14156
ierra	-14157
▁voted	-14158
▁eternal	-14159
▁exclude	-14160
▁allocated	-14161
▁permanently	-14162
▁MO	-14163
ader	-14164
▁Rap	-14165
Async	-14166
ethyl	-14167
▁Gate	-14168
▁STEM	-14169
pleted	-14170
▁Trump	-14171
▁Napole	-14172
▁Simply	-14173
▁Together	-14174
▁variance	-14175
controlled	-14176
▁Financial	-14177
▁regulated	-14178
▁corporations	-14179
▁DR	-14180
▁Tal	-14181
login	-14182
▁Anti	-14183
▁Upon	-14184
▁drew	-14185
▁ions	-14186
▁lith	-14187
Target	-14188
▁brilliant	-14189
▁reasonably	-14190
▁appropriately	-14191
HC	-14192
▁eg	-14193
mouth	-14194
▁Cand	-14195
▁cher	-14196
Serial	-14197
▁Freder	-14198
Location	-14199
▁Summary	-14200
▁caffeine	-14201
abilitation	-14202
▁Publishing	-14203
▁Communication	-14204
▁certification	-14205
impl	-14206
▁DOM	-14207
▁Mas	-14208
erver	-14209
keley	-14210
▁JOIN	-14211
▁forty	-14212
▁poems	-14213
▁facial	-14214
▁interference	-14215
▁abd	-14216
Buffer	-14217
terday	-14218
▁forum	-14219
▁ranks	-14220
closure	-14221
▁Either	-14222
▁Status	-14223
▁cannab	-14224
▁descent	-14225
▁regards	-14226
▁Tennessee	-14227
aux	-14228
dem	-14229
▁SC	-14230
▁alk	-14231
opter	-14232
▁Hell	-14233
▁extensively	-14234
dots	-14235
▁Diff	-14236
▁Smart	-14237
▁harass	-14238
urations	-14239
▁Affairs	-14240
▁metadata	-14241
▁potatoes	-14242
▁mandatory	-14243
▁Wy	-14244
▁lean	-14245
▁resur	-14246
although	-14247
▁caution	-14248
▁coupled	-14249
▁matched	-14250
▁useless	-14251
Vis	-14252
mir	-14253
POST	-14254
lass	-14255
ausea	-14256
Bundle	-14257
▁champ	-14258
▁Private	-14259
▁imagery	-14260
▁trapped	-14261
▁consisted	-14262
▁devastating	-14263
▁problematic	-14264
▁insufficient	-14265
}/	-14266
tri	-14267
▁$|	-14268
None	-14269
▁GUI	-14270
▁Vill	-14271
▁parish	-14272
▁dispers	-14273
▁melting	-14274
WriteLine	-14275
upuncture	-14276
▁constitu	-14277
▁analyzing	-14278
▁templates	-14279
------------	-14280
▁accumulation	-14281
Mem	-14282
oscow	-14283
ulses	-14284
▁USDA	-14285
▁arsen	-14286
▁folks	-14287
▁noting	-14288
▁segreg	-14289
▁sorted	-14290
▁festival	-14291
▁operates	-14292
▁elevation	-14293
▁strengths	-14294
▁agreements	-14295
UTF	-14296
▁aspir	-14297
▁bulbs	-14298
▁cardiac	-14299
▁legally	-14300
▁revised	-14301
▁campaigns	-14302
▁promotion	-14303
:@"	-14304
GBT	-14305
dest	-14306
▁---	-14307
▁cups	-14308
▁horn	-14309
usually	-14310
▁Complete	-14311
▁Pediatric	-14312
▁temporarily	-14313
bes	-14314
hol	-14315
▁pigs	-14316
▁spells	-14317
▁delayed	-14318
▁misunder	-14319
▁interviews	-14320
▁Independence	-14321
▁archaeological	-14322
aphor	-14323
▁Ottoman	-14324
ropolitan	-14325
otechnology	-14326
▁tremendous	-14327
▁stakeholders	-14328
▁collaborative	-14329
agg	-14330
lict	-14331
▁hip	-14332
▁Ground	-14333
▁mankind	-14334
▁printer	-14335
▁IL	-14336
emet	-14337
▁Dog	-14338
▁Vien	-14339
semble	-14340
▁queen	-14341
▁colours	-14342
▁lengths	-14343
▁employer	-14344
▁Bulgarian	-14345
▁twentieth	-14346
Show	-14347
Stud	-14348
cend	-14349
rock	-14350
enium	-14351
▁Tour	-14352
▁okay	-14353
energy	-14354
▁Jordan	-14355
▁listing	-14356
▁republic	-14357
▁groundwater	-14358
▁simulations	-14359
PG	-14360
oned	-14361
folio	-14362
▁uter	-14363
▁Youth	-14364
▁panic	-14365
▁Config	-14366
▁Images	-14367
▁banking	-14368
▁travels	-14369
ajax	-14370
news	-14371
▁Alf	-14372
prime	-14373
▁odds	-14374
▁Proceed	-14375
▁notably	-14376
▁prostate	-14377
▁Chemistry	-14378
▁dysfunction	-14379
▁coefficients	-14380
mode	-14381
▁Pil	-14382
hello	-14383
oping	-14384
▁Sure	-14385
arency	-14386
▁crowd	-14387
▁Weight	-14388
▁derive	-14389
▁socially	-14390
▁throwing	-14391
▁practiced	-14392
▁Alg	-14393
▁rust	-14394
rative	-14395
▁utter	-14396
▁dozens	-14397
▁worlds	-14398
▁Changes	-14399
▁justify	-14400
controller	-14401
▁programmes	-14402
▁publishing	-14403
▁computational	-14404
STR	-14405
cus	-14406
pool	-14407
temp	-14408
▁cer	-14409
udson	-14410
▁Nich	-14411
▁Titan	-14412
▁downt	-14413
▁secured	-14414
▁founding	-14415
▁searched	-14416
▁foundations	-14417
▁manipulation	-14418
PH	-14419
▁Muh	-14420
onder	-14421
osures	-14422
▁energ	-14423
▁numpy	-14424
program	-14425
▁Democr	-14426
▁restriction	-14427
▁Applications	-14428
▁satisfaction	-14429
MD	-14430
Now	-14431
▁Cho	-14432
rable	-14433
▁poultry	-14434
▁considers	-14435
REE	-14436
▁spite	-14437
Library	-14438
▁racism	-14439
atherine	-14440
aughters	-14441
▁wherever	-14442
▁watershed	-14443
▁overweight	-14444
▁controversy	-14445
▁notification	-14446
▁Sad	-14447
apore	-14448
▁Boot	-14449
▁cosm	-14450
▁mast	-14451
mother	-14452
▁cubic	-14453
ordinate	-14454
▁Nuclear	-14455
▁Prophet	-14456
itzerland	-14457
▁Progress	-14458
▁headache	-14459
▁uncommon	-14460
▁disasters	-14461
▁electromagnetic	-14462
[:	-14463
ARCH	-14464
forms	-14465
▁Marx	-14466
▁Myth	-14467
▁jack	-14468
▁Craft	-14469
▁Multi	-14470
▁Price	-14471
▁Django	-14472
▁modest	-14473
▁compete	-14474
▁explosion	-14475
▁Il	-14476
olen	-14477
▁Kal	-14478
▁ink	-14479
cache	-14480
▁bapt	-14481
▁knock	-14482
▁basket	-14483
▁Leaders	-14484
▁journals	-14485
▁compressed	-14486
▁instructor	-14487
▁Sustainable	-14488
WH	-14489
uda	-14490
arser	-14491
▁Anth	-14492
▁Lady	-14493
▁noble	-14494
without	-14495
▁linking	-14496
▁Background	-14497
▁Originally	-14498
▁definitive	-14499
▁accommodate	-14500
Ob	-14501
▁NC	-14502
yers	-14503
▁Hind	-14504
Search	-14505
giving	-14506
▁evolve	-14507
▁Theorem	-14508
▁counted	-14509
▁topology	-14510
_,	-14511
ho	-14512
avy	-14513
csv	-14514
tha	-14515
each	-14516
rient	-14517
▁Left	-14518
▁yoga	-14519
ativity	-14520
iencies	-14521
▁bubble	-14522
▁soldier	-14523
▁stating	-14524
▁geography	-14525
Why	-14526
lem	-14527
▁lacking	-14528
Interface	-14529
▁Franklin	-14530
▁Universe	-14531
▁selector	-14532
▁attending	-14533
▁executable	-14534
▁citizenship	-14535
imity	-14536
▁fastest	-14537
mentation	-14538
▁Consequently	-14539
AX	-14540
▁succ	-14541
▁explos	-14542
▁Israeli	-14543
▁teachings	-14544
AY	-14545
▁Hold	-14546
execute	-14547
▁traged	-14548
▁heading	-14549
▁intuitive	-14550
▁conditional	-14551
igs	-14552
Exec	-14553
▁Neb	-14554
▁fut	-14555
insic	-14556
▁Loss	-14557
▁palm	-14558
bottom	-14559
ewater	-14560
▁Diagn	-14561
▁Panel	-14562
▁Apache	-14563
▁Strateg	-14564
▁currents	-14565
dependency	-14566
▁appearing	-14567
▁empirical	-14568
▁maintains	-14569
Draw	-14570
byte	-14571
ophy	-14572
sort	-14573
▁Hal	-14574
▁mad	-14575
▁Anne	-14576
▁Benj	-14577
rategy	-14578
▁Nobel	-14579
▁recru	-14580
▁cookie	-14581
▁hiding	-14582
▁landed	-14583
▁verbal	-14584
attering	-14585
▁billions	-14586
▁volunteer	-14587
▁Literature	-14588
▁presenting	-14589
Big	-14590
▁Host	-14591
asound	-14592
▁Around	-14593
▁domains	-14594
▁feasible	-14595
ди	-14596
ле	-14597
▁lin	-14598
▁Prep	-14599
▁dishes	-14600
▁DateTime	-14601
▁friction	-14602
▁occasions	-14603
▁correction	-14604
▁insulation	-14605
▁referenced	-14606
▁proportional	-14607
ez	-14608
▁iP	-14609
▁за	-14610
Auth	-14611
▁Byz	-14612
▁Rain	-14613
▁reuse	-14614
▁Single	-14615
▁nurses	-14616
cedented	-14617
iplinary	-14618
▁deliber	-14619
▁wounded	-14620
resistant	-14621
▁rectangle	-14622
▁Philosophy	-14623
▁anniversary	-14624
)).	-14625
hop	-14626
▁ра	-14627
▁Mir	-14628
▁Brad	-14629
▁thou	-14630
▁blade	-14631
▁cruel	-14632
▁tiles	-14633
▁assass	-14634
▁silent	-14635
▁breathe	-14636
▁Memorial	-14637
▁recycled	-14638
▁comprised	-14639
hm	-14640
▁Bag	-14641
▁ate	-14642
views	-14643
▁Style	-14644
▁mapped	-14645
▁accused	-14646
▁concert	-14647
unciation	-14648
▁activate	-14649
▁FL	-14650
pename	-14651
▁Armen	-14652
Android	-14653
Fragment	-14654
▁Firefox	-14655
▁enthusi	-14656
▁authorized	-14657
inflammatory	-14658
NC	-14659
Hub	-14660
iscal	-14661
ushes	-14662
▁dign	-14663
▁grat	-14664
▁Course	-14665
▁blacks	-14666
np	-14667
ococ	-14668
▁Gas	-14669
Level	-14670
▁cous	-14671
▁dirty	-14672
emetery	-14673
forming	-14674
▁desper	-14675
▁Starting	-14676
▁connects	-14677
▁football	-14678
▁switches	-14679
▁Parkinson	-14680
▁voluntary	-14681
▁compromise	-14682
▁mathematic	-14683
▁mosquitoes	-14684
▁acquisition	-14685
▁disappeared	-14686
▁geographical	-14687
prov	-14688
▁dos	-14689
olith	-14690
rowse	-14691
▁gums	-14692
▁gauge	-14693
▁omega	-14694
▁Challenge	-14695
▁Louisiana	-14696
▁Intelligence	-14697
▁antioxidants	-14698
▁standardized	-14699
▁neighborhoods	-14700
iffs	-14701
Layer	-14702
▁tast	-14703
figure	-14704
▁Focus	-14705
▁Fried	-14706
▁Pharm	-14707
▁blame	-14708
▁trips	-14709
▁hosted	-14710
▁stayed	-14711
personal	-14712
▁posting	-14713
▁radioactive	-14714
▁practitioners	-14715
mia	-14716
ptr	-14717
▁GO	-14718
elli	-14719
▁Tell	-14720
▁Stanford	-14721
▁monetary	-14722
▁temporal	-14723
connection	-14724
▁purchasing	-14725
▁consistency	-14726
▁±	-14727
▁Fast	-14728
▁Utah	-14729
▁belt	-14730
▁bike	-14731
ensing	-14732
▁Wright	-14733
▁expose	-14734
▁walked	-14735
▁Evidence	-14736
▁birthday	-14737
▁influenza	-14738
▁disciplines	-14739
iens	-14740
▁Dak	-14741
▁IBM	-14742
▁при	-14743
video	-14744
▁cube	-14745
▁ghost	-14746
analysis	-14747
▁transit	-14748
▁emphasize	-14749
▁suspended	-14750
▁photography	-14751
Flo	-14752
▁$.	-14753
agus	-14754
integ	-14755
mates	-14756
▁Dead	-14757
▁dots	-14758
▁tale	-14759
Native	-14760
invoke	-14761
profile	-14762
▁Impact	-14763
▁Moscow	-14764
▁judges	-14765
▁resting	-14766
▁validate	-14767
▁Switzerland	-14768
fi	-14769
jan	-14770
Plot	-14771
pret	-14772
▁IPv	-14773
▁Kind	-14774
aments	-14775
▁Maine	-14776
▁herbs	-14777
▁revel	-14778
pletion	-14779
▁deprec	-14780
▁guilty	-14781
overflow	-14782
▁simplic	-14783
▁lightning	-14784
orb	-14785
late	-14786
iotics	-14787
varphi	-14788
▁delta	-14789
▁ceiling	-14790
▁failures	-14791
▁commander	-14792
▁References	-14793
▁Performance	-14794
owed	-14795
▁alleg	-14796
▁inert	-14797
▁cement	-14798
▁tender	-14799
▁Boolean	-14800
▁implant	-14801
▁picking	-14802
▁similarities	-14803
ци	-14804
Hist	-14805
atal	-14806
▁Dor	-14807
▁lux	-14808
reach	-14809
▁clip	-14810
Record	-14811
▁Kenya	-14812
▁whale	-14813
counter	-14814
ifiable	-14815
▁clarity	-14816
▁Extension	-14817
▁breakdown	-14818
▁obtaining	-14819
COM	-14820
lon	-14821
Port	-14822
▁Joe	-14823
▁sho	-14824
▁LORD	-14825
▁cock	-14826
▁rival	-14827
▁affirm	-14828
▁adventure	-14829
▁dissolved	-14830
▁elaborate	-14831
▁earthquakes	-14832
gb	-14833
)),	-14834
oton	-14835
▁Wang	-14836
▁flux	-14837
▁toll	-14838
▁hoped	-14839
▁strat	-14840
▁sugars	-14841
clamation	-14842
DN	-14843
hend	-14844
▁Ron	-14845
▁seas	-14846
▁Czech	-14847
▁Manual	-14848
▁Planet	-14849
▁receptor	-14850
▁wp	-14851
▁Pit	-14852
▁pad	-14853
▁ADHD	-14854
▁Protect	-14855
▁exports	-14856
▁scratch	-14857
▁IO	-14858
▁dir	-14859
▁tune	-14860
▁Bishop	-14861
▁Column	-14862
▁stocks	-14863
▁outlined	-14864
▁то	-14865
ilde	-14866
isan	-14867
▁Ark	-14868
alone	-14869
▁Oracle	-14870
▁trains	-14871
▁aquatic	-14872
▁delegate	-14873
▁mistaken	-14874
▁specimens	-14875
tech	-14876
beans	-14877
eping	-14878
▁POST	-14879
▁Sans	-14880
▁Award	-14881
ordered	-14882
▁bitter	-14883
▁sender	-14884
▁Conserv	-14885
▁distress	-14886
GR	-14887
VE	-14888
▁Hu	-14889
▁ABC	-14890
▁Feed	-14891
bility	-14892
▁Close	-14893
▁carcin	-14894
▁gastro	-14895
▁fossils	-14896
▁obstacles	-14897
▁settlements	-14898
▁appreciation	-14899
[...]
